{"version":"1.0","truncation":null,"padding":null,"added_tokens":[{"id":0,"content":"[PAD]","single_word":false,"lstrip":false,"rstrip":false,"normalized":false,"special":true},{"id":1,"content":"[UNK]","single_word":false,"lstrip":false,"rstrip":false,"normalized":false,"special":true},{"id":2,"content":"[BOS]","single_word":false,"lstrip":false,"rstrip":false,"normalized":false,"special":true},{"id":3,"content":"[EOS]","single_word":false,"lstrip":false,"rstrip":false,"normalized":false,"special":true}],"normalizer":{"type":"Sequence","normalizers":[{"type":"Strip","strip_left":true,"strip_right":true},{"type":"NFC"}]},"pre_tokenizer":{"type":"ByteLevel","add_prefix_space":true,"trim_offsets":true,"use_regex":true},"post_processor":{"type":"ByteLevel","add_prefix_space":true,"trim_offsets":true,"use_regex":true},"decoder":{"type":"ByteLevel","add_prefix_space":true,"trim_offsets":true,"use_regex":true},"model":{"type":"BPE","dropout":null,"unk_token":"[UNK]","continuing_subword_prefix":null,"end_of_word_suffix":null,"fuse_unk":false,"byte_fallback":false,"ignore_merges":false,"vocab":{"[PAD]":0,"[UNK]":1,"[BOS]":2,"[EOS]":3,"!":4,"\"":5,"#":6,"$":7,"%":8,"&":9,"'":10,"(":11,")":12,"*":13,"+":14,",":15,"-":16,".":17,"/":18,"0":19,"1":20,"2":21,"3":22,"4":23,"5":24,"6":25,"7":26,"8":27,"9":28,":":29,";":30,"<":31,"=":32,">":33,"?":34,"@":35,"A":36,"B":37,"C":38,"D":39,"E":40,"F":41,"G":42,"H":43,"I":44,"J":45,"K":46,"L":47,"M":48,"N":49,"O":50,"P":51,"Q":52,"R":53,"S":54,"T":55,"U":56,"V":57,"W":58,"X":59,"Y":60,"Z":61,"[":62,"\\":63,"]":64,"^":65,"_":66,"`":67,"a":68,"b":69,"c":70,"d":71,"e":72,"f":73,"g":74,"h":75,"i":76,"j":77,"k":78,"l":79,"m":80,"n":81,"o":82,"p":83,"q":84,"r":85,"s":86,"t":87,"u":88,"v":89,"w":90,"x":91,"y":92,"z":93,"{":94,"|":95,"}":96,"~":97,"¡":98,"¢":99,"£":100,"¤":101,"¥":102,"¦":103,"§":104,"¨":105,"©":106,"ª":107,"«":108,"¬":109,"®":110,"¯":111,"°":112,"±":113,"²":114,"³":115,"´":116,"µ":117,"¶":118,"·":119,"¸":120,"¹":121,"º":122,"»":123,"¼":124,"½":125,"¾":126,"¿":127,"Â":128,"Ã":129,"Ä":130,"Å":131,"×":132,"â":133,"ã":134,"ï":135,"Ĉ":136,"Đ":137,"Ġ":138,"Ģ":139,"ģ":140,"Ĥ":141,"ĥ":142,"Ħ":143,"ħ":144,"Ĩ":145,"ĩ":146,"Ī":147,"ī":148,"Ĭ":149,"Į":150,"į":151,"İ":152,"ı":153,"Ĳ":154,"ĳ":155,"Ĵ":156,"ĵ":157,"ķ":158,"ĸ":159,"Ĺ":160,"ĺ":161,"Ļ":162,"ļ":163,"Ľ":164,"ľ":165,"Ŀ":166,"ŀ":167,"Ł":168,"ł":169,"Ń":170,"Ġt":171,"Ġa":172,"he":173,"in":174,"Ġthe":175,"Ġs":176,"re":177,"Ġw":178,"Ġo":179,"is":180,"er":181,"nd":182,"Ġf":183,"Ġm":184,"Ġb":185,"it":186,"at":187,"ing":188,"Ġc":189,"en":190,"es":191,"or":192,"ou":193,"Ġth":194,"on":195,"Ġh":196,"ll":197,"Ġof":198,"Ġand":199,"an":200,"Ġto":201,"Ġp":202,"ar":203,"Ġd":204,"ed":205,"as":206,"Ġin":207,"Ġl":208,"ĠI":209,"om":210,"Ġis":211,"br":212,"ic":213,"Ġg":214,"Ġ/":215,"Ġ/>":216,"le":217,"Ġe":218,"ot":219,"Ġn":220,"al":221,"ut":222,"st":223,"ct":224,"il":225,"Ġit":226,"Ġbe":227,"ĠT":228,"ve":229,"ie":230,"Ġmo":231,"ly":232,"Ġre":233,"Ġon":234,"Ġthat":235,"ow":236,"ver":237,"ad":238,"ent":239,"'s":240,"Ġhe":241,"Ġthis":242,"ion":243,"im":244,"ay":245,"Ġwh":246,"se":247,"Ġst":248,"et":249,"gh":250,"id":251,"ch":252,"Ġwas":253,"Ġmov":254,"Ġy":255,"Ġ/><":256,"ith":257,"ilm":258,"all":259,"Ġfilm":260,"oo":261,"Ġfor":262,"ĠA":263,"Ġas":264,"Ġu":265,"ce":266,"Ġwith":267,"ĠS":268,"Ġan":269,"ke":270,"am":271,"ld":272,"Ġse":273,"ĠThe":274,"Ġmovie":275,"ir":276,"ro":277,"Ġyou":278,"Ġha":279,"ri":280,".<":281,"ĠB":282,"her":283,"ur":284,"Ġli":285,"ĠM":286,"Ġbut":287,"ra":288,"Ġnot":289,"Ġwe":290,"'t":291,"ally":292,"ill":293,"ter":294,"Ġ(":295,"ĠC":296,"Ġ\"":297,"ĠH":298,"ck":299,"Ġare":300,"Ġsh":301,"ome":302,"Ġhis":303,"ĠW":304,"Ġch":305,"pe":306,"ers":307,"..":308,"Ġat":309,"ould":310,"ul":311,"Ġhave":312,"ĠD":313,"ght":314,"if":315,"ust":316,"un":317,"em":318,"Ġj":319,"Ġsu":320,"Ġfr":321,"Ġsc":322,"out":323,"Ġact":324,"Ġdo":325,"ble":326,"ain":327,"Ġex":328,"Ġone":329,"ess":330,"Ġwho":331,"Ġk":332,"el":333,"Ġso":334,"very":335,"act":336,"Ġpl":337,"Ġcom":338,"ood":339,"Ġall":340,"ant":341,"Ġab":342,"art":343,"ies":344,"pp":345,"ak":346,"us":347,"Ġal":348,"Ġby":349,"ag":350,"Ġv":351,"ol":352,"est":353,"op":354,"th":355,"ous":356,"ĠP":357,"Ġde":358,"ĠR":359,"ist":360,"ĠL":361,"and":362,"Ġwor":363,"Ġfrom":364,"ĠF":365,"Ġthey":366,"Ġlike":367,"Ġne":368,"one":369,"Ġout":370,"ast":371,"Ġr":372,"ven":373,"Ġwhe":374,"Ġsome":375,"Ġint":376,"Ġor":377,"qu":378,"ation":379,"ĠJ":380,"fe":381,"ĠG":382,"Ġcon":383,"um":384,"red":385,"ough":386,"au":387,"ĠTh":388,"Ġher":389,"ĠIt":390,"ate":391,"Ġme":392,"Ġjust":393,"Ġabout":394,"Ġhas":395,"res":396,"os":397,"ich":398,"ind":399,"ard":400,"ĠN":401,"Ġpro":402,"ive":403,"ory":404,"ack":405,"Ġchar":406,"Ġcan":407,"ort":408,"pt":409,"Ġtim":410,"ĠE":411,"Ġun":412,"ig":413,"ud":414,"ook":415,"ire":416,"ake":417,"reat":418,"ĠO":419,"Ġle":420,"Ġcharact":421,"ight":422,"Ġgood":423,"Ġany":424,"Ġwat":425,"Ġman":426,"Ġlo":427,"ong":428,"Ġup":429,"Ġtr":430,"Ġmore":431,"Ġget":432,"Ġgo":433,"Ġno":434,"Ġsee":435,"Ġwould":436,"ity":437,"Ġfe":438,"ound":439,"Ġvery":440,"The":441,"Ġwhat":442,"Ġmy":443,"ther":444,"Ġthere":445,"ame":446,"ite":447,"ge":448,"nt":449,"ĠThis":450,"ide":451,"Ġbec":452,"able":453,"Ġstory":454,"Ġtime":455,"od":456,"Ġwhen":457,"Ġ1":458,"Ġshe":459,"Ġen":460,"ore":461,"Ġ-":462,"hing":463,"Ġscen":464,"Ġwere":465,"Ġhad":466,"oy":467,"Ġreally":468,"ure":469,"Ġif":470,"Ġtheir":471,"Ġwatch":472,"ell":473,"Ġshow":474,"Ġonly":475,"ci":476,"Ġhim":477,"itt":478,"ab":479,"Ġeven":480,"ĠK":481,"Ġother":482,"ink":483,"ick":484,"pl":485,"Ġper":486,"Ġwhich":487,"so":488,"Ġcl":489,"Ġthem":490,"our":491,"Ġkn":492,"man":493,"ine":494,"Ġdid":495,"Ġthan":496,"ond":497,"ment":498,"og":499,"te":500,"uch":501,"ious":502,"ars":503,"ays":504,"are":505,"Ġend":506,"Ġdoes":507,"ap":508,"ade":509,"ves":510,"ause":511,"Ġpe":512,"...":513,"Ġgreat":514,"ice":515,"Ġlook":516,"Ġmuch":517,"ue":518,"Ġbad":519,"Ġbet":520,"Ġqu":521,"Ġar":522,"ac":523,"Ġbeen":524,"Ġcould":525,"irect":526,"ople":527,"Ġim":528,"Ġwill":529,"ert":530,"irst":531,"ple":532,"Ġhow":533,"Ġpo":534,"ence":535,"Ġover":536,"Ġinto":537,"lf":538,"Ġwell":539,"ne":540,"Ġpre":541,"Ġmost":542,"Ġknow":543,"ass":544,"ry":545,"Ġpeople":546,"int":547,"ose":548,"Ġthink":549,"Ġtw":550,"Ġro":551,"other":552,"for":553,"Ġdis":554,"Ġbecause":555,"Ġtoo":556,"Ġad":557,"age":558,"Ġus":559,"ff":560,"per":561,"Ġevery":562,"fter":563,"av":564,"Ġag":565,"Ġreal":566,"ors":567,"ful":568,"Ġam":569,"Ġmake":570,"Ġoff":571,"Ġdirect":572,"ish":573,"Ġpart":574,"Ġthing":575,"Ġfirst":576,"Ġmade":577,"ull":578,"ile":579,"ny":580,"Ġfun":581,"aw":582,"ict":583,"Ġway":584,"Ġalso":585,"ty":586,"ere":587,"oll":588,"ost":589,"Ġdon":590,"Ġ'":591,"ian":592,"Ġmovies":593,"akes":594,"Ġseem":595,"Ġthr":596,"own":597,"Ġwr":598,"ary":599,"Ġcharacter":600,"Ġits":601,"ated":602,"Ġgu":603,"ep":604,"ical":605,"gin":606,"Ġsp":607,"iew":608,"Ġcharacters":609,"Ġbl":610,"ace":611,"ob":612,"ress":613,"Ġwork":614,"ĠY":615,"ually":616,"ng":617,"ĠCh":618,"Ġte":619,"ĠAnd":620,"fect":621,"Ġfl":622,"hed":623,"Ġfilms":624,"cc":625,"pect":626,"ial":627,"Ġplay":628,"iz":629,"Ġseen":630,"Ġplot":631,"ĠV":632,"self":633,"Ġthen":634,"ving":635,"Ġyour":636,"Ġwant":637,"ces":638,"omet":639,"Ġye":640,"Ġbeing":641,"ĠBut":642,"ĠWh":643,"Ġaw":644,"ance":645,"),":646,"Ġser":647,"Ġlove":648,"ĠIn":649,"Ġmany":650,"Ġsay":651,"Ġafter":652,"ittle":653,"ang":654,"Ġtwo":655,"get":656,"Ġnever":657,"nder":658,"ĠHe":659,"Ġacting":660,").":661,"ans":662,"ens":663,"Ġ<":664,"urn":665,"mer":666,"Ġwhere":667,"ip":668,"ark":669,"Ġent":670,"Ġthrough":671,"ved":672,"Ġback":673,"Ġlife":674,"ach":675,"Ġbest":676,"Ġlittle":677,"Ġsomet":678,"Ġrem":679,"Ġever":680,"Ġhor":681,"ult":682,"Ġrec":683,"ild":684,"ily":685,"ather":686,"ber":687,"Ġdes":688,"Ġbetter":689,"we":690,"Ġbr":691,"du":692,"ise":693,"vel":694,"ions":695,"wn":696,"!!":697,"ĠSt":698,"ual":699,"Ġscene":700,"ru":701,"Ġfind":702,"thing":703,"Ġperfor":704,"be":705,"ought":706,"Ġspe":707,"Ġshould":708,"rap":709,"aking":710,"Ġsl":711,"Ġscenes":712,"vers":713,"Ġpr":714,"Ġi":715,"Ġcont":716,"ase":717,"iend":718,"ertain":719,"ĠU":720,"Ġfeel":721,"Ġmin":722,"less":723,"ĠThere":724,"'ve":725,"Ġ2":726,"Ġatt":727,"Ġunder":728,"Ġgr":729,"lie":730,"me":731,"ath":732,"augh":733,"Ġagain":734,"ting":735,"ents":736,"Ġri":737,"ever":738,"Ġstill":739,"Ġhere":740,"ree":741,"erest":742,"ia":743,"les":744,"igh":745,"ning":746,"fore":747,"ren":748,"Ġkill":749,"Ġsomething":750,"Ġinc":751,"ably":752,"ense":753,"'m":754,"Ġ19":755,"Ġinterest":756,"Ġsuch":757,"ating":758,"Ġhapp":759,"Ġimp":760,"Ġlot":761,"Ġthese":762,"Ġmay":763,"ations":764,"ave":765,"Ġcr":766,"arly":767,"ason":768,"ail":769,"Ġhum":770,"alk":771,"Ġsur":772,"Ġold":773,"Ġperforman":774,"ĠAl":775,"Ġgi":776,"reen":777,"Ġcast":778,"ror":779,"ock":780,"up":781,"the":782,"ater":783,"oth":784,"Ġpoint":785,"ect":786,"iv":787,"Ġdoesn":788,"ĠIf":789,"Ġmus":790,"Ġthose":791,"Ġactors":792,"Ġap":793,"Ġwatching":794,"Ġfam":795,"Ġdidn":796,"joy":797,"Ġdec":798,"ying":799,"Ġres":800,"Ġra":801,"Ġsim":802,"Ġche":803,"Ġguy":804,"Ġyears":805,"Ġwom":806,"Ġfunny":807,"Ġcou":808,"Ġgir":809,"Ġgen":810,"ffect":811,"Ġview":812,"Ġenjoy":813,"Ġset":814,"Ġmakes":815,"Ġtra":816,"Ġstart":817,"Ġfact":818,"erson":819,"Ġbelie":820,"ute":821,"Ġdown":822,"edy":823,"Ġgoing":824,"Ġcomp":825,"ool":826,"Ġsame":827,"iss":828,"Ġob":829,"az":830,"oc":831,"Ġactually":832,"--":833,"Ġfew":834,"Ġbefore":835,"oss":836,"Ġfin":837,"old":838,"Ġem":839,"Ġlong":840,"Ġev":841,"Ġsub":842,"der":843,"wh":844,"ale":845,"Ġpret":846,"Ġprodu":847,"ience":848,"ft":849,"**":850,"Ġwhile":851,"cial":852,"Ġyoung":853,"Ġgot":854,"Ġnow":855,"Ġthought":856,"Ġter":857,"rigin":858,"Ġwhy":859,"Ġown":860,"Ġdif":861,"ction":862,"li":863,"Ġbig":864,"Ġdirector":865,"Ġke":866,"Ġbit":867,"'re":868,"ons":869,"Ġtri":870,"Ġthough":871,"ub":872,"Ġexce":873,"ript":874,"Ġturn":875,"ĠJo":876,"Ġsupp":877,"hen":878,"Ġnothing":879,"hy":880,"Ġorigin":881,"ible":882,"ram":883,"Ġanother":884,"aut":885,"Ġnew":886,"Ġsm":887,"ings":888,"Ġfriend":889,"ince":890,"Ġcomple":891,"Ġrel":892,"Ġ&":893,"iting":894,"Ġeffect":895,"Ġinv":896,"Ġgirl":897,"Ġaround":898,"rent":899,"Ġquite":900,"Ġseems":901,"Ġthings":902,"onder":903,"Ġpretty":904,"Ġapp":905,"Th":906,"ĠAs":907,"00":908,"Ġscreen":909,"Ġenough":910,"air":911,"meric":912,"ew":913,"ign":914,"ched":915,"ically":916,"ib":917,"most":918,"Ġlaugh":919,"Ġneed":920,"ways":921,"Ġright":922,"ris":923,"ween":924,"ness":925,"Ġhard":926,"Ġscript":927,"ank":928,"Ġfar":929,"Ġworld":930,"Ġacc":931,"Ġkid":932,"Ġstr":933,"Ġoriginal":934,"ĠShe":935,"Ġhigh":936,"Ġperson":937,"ately":938,"Ġtake":939,"app":940,"ster":941,"ead":942,"Ġins":943,"ced":944,"Ġbetween":945,"Ġkind":946,"ention":947,"Ġappe":948,"Ġmust":949,"rill":950,"inem":951,"Ġop":952,"Ġmusic":953,"ĠBr":954,"Ġgive":955,"Ġhorror":956,"Ġes":957,"hes":958,"utes":959,"Ġwonder":960,"ĠYou":961,"Ġrole":962,"ward":963,"Ġreason":964,"Ġsec":965,"\",":966,"ord":967,"vious":968,"ash":969,"Ġgets":970,"its":971,"Ġisn":972,"Ġput":973,"Ġsaw":974,"Ġtimes":975,"Ġmom":976,"Ġtell":977,"Ġalways":978,"Ġseries":979,"Ġwhole":980,"aid":981,"Ġbu":982,"ĠAmeric":983,"Ġaction":984,"Ġsex":985,"Ġleast":986,"ased":987,"Ġhel":988,"icul":989,"Ġinteresting":990,"Ġmain":991,"ĠHow":992,"ody":993,"ĠThey":994,"oot":995,"Ġcome":996,"Ġcomedy":997,"Ġread":998,"Ġchild":999,"here":1000,"Ġlead":1001,"Ġbeaut":1002,"Ġsound":1003,"Ġdone":1004,"Ġclass":1005,"Ġep":1006,"ner":1007,"ife":1008,"Ġboth":1009,"Ġwithout":1010,"Ġexpect":1011,"arr":1012,"Ġalmost":1013,"Ġide":1014,"Ġcons":1015,"Ġshot":1016,"ĠSh":1017,"Ġmight":1018,"Ġminutes":1019,"ully":1020,"gg":1021,"Ġcam":1022,"view":1023,"Ġcinem":1024,"hn":1025,"Ġhand":1026,"rible":1027,"Ġdiffe":1028,"'ll":1029,"Ġworth":1030,"Ġaud":1031,"xt":1032,"ines":1033,"Ġcomplete":1034,"bably":1035,"Ġexpl":1036,"ouse":1037,"uring":1038,"de":1039,"Ġco":1040,"Ġlast":1041,"Ġanything":1042,"ime":1043,"Ġperformance":1044,"stand":1045,"Ġbegin":1046,"though":1047,"Ġbook":1048,"Ġcare":1049,"son":1050,"Ġinst":1051,"ane":1052,"Ġcle":1053,"Ġcour":1054,"Ġfamily":1055,"Ġhelp":1056,"ĠAn":1057,"cially":1058,"Ġ3":1059,"\".":1060,"ĠFr":1061,"ism":1062,"Ġentertain":1063,"ov":1064,"Ġsince":1065,"Ġwar":1066,"Ġel":1067,"Ġcall":1068,"ĠTV":1069,"Ġfound":1070,"era":1071,"Ġaway":1072,"ograp":1073,"ialog":1074,"oney":1075,"mend":1076,"Ġext":1077,"Ġcar":1078,"istic":1079,"Ġsequ":1080,"ures":1081,"ative":1082,"Ġprobably":1083,"Ġart":1084,"atch":1085,"ition":1086,"Ġdialog":1087,"ange":1088,"ros":1089,"Ġrun":1090,"Ġbo":1091,"Ġwoman":1092,"ER":1093,"Ġsure":1094,"ĠWhat":1095,"VD":1096,"aster":1097,"This":1098,"als":1099,"ret":1100,"ject":1101,"ah":1102,"Ġlet":1103,"co":1104,"Ġ10":1105,"pecially":1106,"Ġrather":1107,"isod":1108,"ling":1109,"apt":1110,"Ġadd":1111,"led":1112,".\"":1113,"uck":1114,"oint":1115,"Ġworst":1116,"ten":1117,"ĠBe":1118,"wood":1119,"Ġabs":1120,"Ġhappen":1121,"ĠDVD":1122,"osed":1123,"Ġlik":1124,"Ġour":1125,"Ġmaking":1126,"Ġmean":1127,"Ġvers":1128,"ither":1129,"Ġsurp":1130,"Ġcourse":1131,"alf":1132,"Ġkeep":1133,"Ġanyone":1134,"Ġpoor":1135,"Ġepisod":1136,"Ġbelieve":1137,"ont":1138,"ĠSe":1139,"ok":1140,"Ġeach":1141,"Ġtrying":1142,"ollow":1143,"ĠJohn":1144,"olly":1145,"Ġdifferent":1146,"ĠSo":1147,"Ġbeautif":1148,"Ġmind":1149,"ates":1150,"ĠDe":1151,"Ġdel":1152,"Ġbor":1153,"Ġcomes":1154,"ady":1155,"ĠWe":1156,"Ġjob":1157,"ommend":1158,"Ġcre":1159,"blem":1160,"Ġinter":1161,"umb":1162,"ingly":1163,"Ġsense":1164,"ĠThat":1165,"Ġplace":1166,"hip":1167,"Ġending":1168,"Ġshows":1169,"Ġgoes":1170,"Ġplayed":1171,"fin":1172,"Ġrest":1173,"Ġty":1174,"iter":1175,"ments":1176,"Ġboy":1177,"Ġpol":1178,"ney":1179,"atter":1180,"ĠNot":1181,"Ġless":1182,"empt":1183,"dd":1184,"ics":1185,"rist":1186,"Ġyet":1187,"Ġshort":1188,"iece":1189,"Ġday":1190,"Ġproblem":1191,"ope":1192,"'d":1193,"Ġperfect":1194,"Ġac":1195,"ray":1196,"Ġstand":1197,"Ġpres":1198,"ph":1199,"ality":1200,"ks":1201,"arent":1202,"ilar":1203,"lud":1204,"Ġmem":1205,"Ġwatched":1206,"Ġrecommend":1207,"Ġwasn":1208,"Ġcreat":1209,"Ġfan":1210,"Ġlooks":1211,"It":1212,"Ġlooking":1213,"Ġeffects":1214,"Ġport":1215,"Ġsuper":1216,"Ġmoney":1217,"ream":1218,"ower":1219,"ortun":1220,"aps":1221,"Ġactor":1222,"Ġhalf":1223,"ann":1224,"Ġgl":1225,"sp":1226,"Ġconf":1227,"way":1228,"ĠRe":1229,"ĠTH":1230,"Ġdram":1231,"ĠLe":1232,"ident":1233,"Ġfollow":1234,"Ġsit":1235,"io":1236,"....":1237,"Ġplays":1238,"ĠFor":1239,"Ġcertain":1240,"gether":1241,"Ġtogether":1242,"Ġaudience":1243,"Ġfav":1244,"Ġhead":1245,"Ġmiss":1246,"Ġsaid":1247,"ied":1248,"sc":1249,"Ġunderstand":1250,"llent":1251,"arn":1252,"land":1253,"Ġsomeone":1254,"Ġdep":1255,"Ġhaving":1256,"Ġelse":1257,"ues":1258,"Ġtakes":1259,"Ġreview":1260,"ĠWhen":1261,"Ġsecond":1262,"Ġhimself":1263,"Ġtalk":1264,"Ġimag":1265,"Ġmon":1266,"Ġthree":1267,"Ġposs":1268,"Ġleft":1269,"Ġnice":1270,"Ġed":1271,"Ġtrue":1272,"Ġrele":1273,"ĠBl":1274,"ames":1275,"ĠAll":1276,"udget":1277,"day":1278,"not":1279,"Ġversion":1280,"cept":1281,"ollywood":1282,"Ġspecial":1283,"Ġnight":1284,"ex":1285,"ature":1286,"ix":1287,"10":1288,"Ġfall":1289,"upid":1290,"Ġfriends":1291,"Ġespecially":1292,"atic":1293,"Ġidea":1294,"Ġvis":1295,"ited":1296,"ĠAmerican":1297,"cing":1298,"ists":1299,"uff":1300,"ply":1301,"sy":1302,"Ġcomm":1303,"Ġph":1304,"ional":1305,"Ġuse":1306,"Ġcame":1307,"Ġeverything":1308,"Ġentire":1309,"ross":1310,"ted":1311,"Ġobvious":1312,"ired":1313,"Ġsch":1314,"ier":1315,"Ġhour":1316,"Ġinvol":1317,"Ġey":1318,"Ġbeautiful":1319,"ared":1320,"Ġseeing":1321,"Ġdet":1322,"Ġwife":1323,"Ġexcellent":1324,"Ġsing":1325,"Ġdist":1326,"Ġmur":1327,"ides":1328,"att":1329,"Ġsk":1330,"Ġduring":1331,"Ġtot":1332,"ĠSp":1333,"ĠRob":1334,"ien":1335,"Ġhome":1336,"Ġeveryone":1337,"ĠUn":1338,"Ġlater":1339,"fully":1340,"Ġexc":1341,"Ġstupid":1342,"Ġele":1343,"Ġmen":1344,"Ġlack":1345,"appoint":1346,"ount":1347,"ĠSc":1348,"Ġattempt":1349,"my":1350,"Ġused":1351,"Ġexper":1352,"Ġyear":1353,"ird":1354,"Ġtal":1355,"Ġonce":1356,"Ġlow":1357,"Ġremem":1358,"omb":1359,"amp":1360,"Ġcompletely":1361,"ery":1362,"ins":1363,"like":1364,"Ġmar":1365,"Ġfather":1366,"Ġdisappoint":1367,"Ġfight":1368,"Ġdeath":1369,"ĠMy":1370,"Ġhist":1371,"olute":1372,"Ġass":1373,"Ġtop":1374,"Ġunt":1375,"ains":1376,"ĠOne":1377,"Ġsimply":1378,"Ġopen":1379,"yle":1380,"orn":1381,"ĠSte":1382,"Ġhuman":1383,"ĠCl":1384,"Ġrep":1385,"iol":1386,"ĠAt":1387,"Ġserious":1388,"Ġ4":1389,"ove":1390,"ĠAr":1391,"ract":1392,"Ġcop":1393,"Ġword":1394,"Ġbeh":1395,"Ġexp":1396,"Ġanim":1397,"Ġret":1398,"ork":1399,"Ġloc":1400,"Ġdefin":1401,"Ġstud":1402,"but":1403,"aring":1404,"Ġwrong":1405,"Ġtit":1406,"Ġsong":1407,"ets":1408,"ography":1409,"Ġsy":1410,"Ġinclud":1411,"Ġgener":1412,"orm":1413,"ĠHollywood":1414,"Ġemot":1415,"Ġalong":1416,"ott":1417,"Ġcra":1418,"ideo":1419,"Ġmess":1420,"Ġpict":1421,"Ġheart":1422,"ĠMar":1423,"Ġ--":1424,"Ġperformances":1425,"Ġtry":1426,"Ġsupposed":1427,"Ġeither":1428,"Ġcamera":1429,"ĠZ":1430,"Ġgra":1431,"itten":1432,"Ġabsolute":1433,"Ġboring":1434,"Ġfail":1435,"uly":1436,"Ġdra":1437,"ider":1438,"Ġkids":1439,"idd":1440,"Ġline":1441,"Ġblack":1442,"Ġcount":1443,"vin":1444,"Ġeas":1445,"Ġcouple":1446,"fic":1447,"Ġschool":1448,"ote":1449,"Ġ8":1450,"gr":1451,"Ġproduction":1452,"Ġsmall":1453,"ĠChrist":1454,"ax":1455,"Ġpass":1456,"Ã©":1457,"Ġexam":1458,"Ġind":1459,"Ġclassic":1460,"Ġbas":1461,"elt":1462,"oice":1463,"Ġsurpris":1464,"uth":1465,"Ġhope":1466,"Ġgiven":1467,"ĠHowever":1468,"vis":1469,"Ġwomen":1470,"haps":1471,"Ġbecom":1472,"com":1473,"iant":1474,"Ġbudget":1475,"med":1476,"Ġ5":1477,"Ġconc":1478,"Ġsort":1479,"oon":1480,"Ġfavor":1481,"itely":1482,"Ġuntil":1483,"Ġparticul":1484,"Ġlight":1485,"Ġtruly":1486,"Ġhumor":1487,"Ġrom":1488,"Ġsad":1489,"Ġflick":1490,"Ġportray":1491,"Ġcred":1492,"ities":1493,"Ġwon":1494,"Ġhouse":1495,"Ġmoments":1496,"Ġhero":1497,"ize":1498,"Ġname":1499,"Ġfull":1500,"Ġitself":1501,"Ġviol":1502,"sel":1503,"Ġstar":1504,"play":1505,"velop":1506,"Ġple":1507,"fortun":1508,"ĠNo":1509,"Ġgetting":1510,"IN":1511,"iness":1512,"ĠWell":1513,"Ġamaz":1514,"Ġinstead":1515,"ton":1516,"Ġawful":1517,"Ġpain":1518,"que":1519,"ike":1520,"ows":1521,"Ġremember":1522,"ility":1523,"aj":1524,"Ġnext":1525,"tern":1526,"cess":1527,"ently":1528,"ric":1529,"Ġterrible":1530,"ĠMan":1531,"ĠCar":1532,"Ġexcept":1533,"reak":1534,"Ġgives":1535,"Ġdoing":1536,"Ġguess":1537,"Ġmother":1538,"cy":1539,"Ġwa":1540,"Ġepisode":1541,"Ġcoll":1542,"Ġplaying":1543,"Ġdri":1544,"ĠOn":1545,"Ġtalent":1546,"Ġface":1547,"ories":1548,"Ġreg":1549,"ug":1550,"Ġlines":1551,"ĠMr":1552,"itch":1553,"Ġhowever":1554,"Ġdialogue":1555,"Ġ7":1556,"ister":1557,"reme":1558,"ĠÂ":1559,"Ġwonderful":1560,"Ġ.":1561,"ps":1562,"ĠTHE":1563,"Ġothers":1564,"illy":1565,"Ġvideo":1566,"Ġoften":1567,"Ġwent":1568,"ony":1569,"ument":1570,",\"":1571,"imes":1572,"Ġcouldn":1573,"Ġpiece":1574,"ĠDon":1575,"Ġcor":1576,"ger":1577,"Ġpower":1578,"Ġform":1579,"Ġdead":1580,"Ġslow":1581,"Ġcut":1582,"Ġbecome":1583,"Ġ9":1584,"Ġbrill":1585,"ĠJack":1586,"Ġearly":1587,"Ġimpress":1588,"vent":1589,"Ġliked":1590,"Ġann":1591,"ured":1592,"olog":1593,"aughter":1594,"Ġquest":1595,"ming":1596,"Ġdevelop":1597,"ized":1598,"Ġentertaining":1599,"Ġclose":1600,"ibly":1601,"yn":1602,"Ġcase":1603,"Ġlive":1604,"line":1605,"Ġref":1606,"ĠWill":1607,"Ġmaybe":1608,"Ġmention":1609,"right":1610,"enn":1611,"Ġfelt":1612,"oid":1613,"Ġchildren":1614,"ael":1615,"Ġstyle":1616,"het":1617,"Ġstars":1618,"body":1619,"used":1620,"Ġrelations":1621,"Ġmatter":1622,"ler":1623,"Ġstrong":1624,"Ġtrans":1625,"lish":1626,"Ġabsolutely":1627,"Ġdark":1628,"ley":1629,"Ġz":1630,"Ġactress":1631,"Ġtitle":1632,"Ġworse":1633,"Ġrent":1634,"Ġrid":1635,"und":1636,"ccess":1637,"Ġbeginning":1638,"ĠAfter":1639,"In":1640,"oub":1641,"ular":1642,"Ġguys":1643,"Ġside":1644,"pite":1645,"Ġwaste":1646,"uss":1647,"Ġmis":1648,"Ġdefinitely":1649,"riend":1650,"ined":1651,"Ġcertainly":1652,"ĠEven":1653,"Ġwritten":1654,"Ġagainst":1655,"ific":1656,"by":1657,"Ġfant":1658,"Ġextreme":1659,"Ġseemed":1660,"selves":1661,"ĠDav":1662,"ready":1663,"Wh":1664,"ĠHis":1665,"Ġloved":1666,"unch":1667,"Ġsever":1668,"pped":1669,"Ġpast":1670,"ape":1671,"Ġbrilliant":1672,"Ġcinema":1673,"Ġwanted":1674,"ĠSome":1675,"ĠNew":1676,"ts":1677,"Ġseveral":1678,"unk":1679,"ichael":1680,"atur":1681,"Ġpicture":1682,"ison":1683,"Ġpop":1684,"ĠTo":1685,"Ġbecomes":1686,"fortunately":1687,"Ġsw":1688,"Ġpred":1689,"Ġalready":1690,"Ġrelationship":1691,"ĠEng":1692,"Ġexample":1693,"ung":1694,"Ġsuccess":1695,"Ġtotally":1696,"Ġdrama":1697,"aken":1698,"vable":1699,"Ġadm":1700,"Ġmaster":1701,"osp":1702,"Ġblood":1703,"ĠIs":1704,"Ġable":1705,"Ġthrill":1706,"Ġlives":1707,"Ġdem":1708,"Ġgame":1709,"gu":1710,"Ġdirection":1711,"rew":1712,"Ġfans":1713,"ĠHar":1714,"Ġpar":1715,"Ġalthough":1716,"iam":1717,"ief":1718,"Ġcalled":1719,"Ġpur":1720,"Ġet":1721,"ided":1722,"Ġprov":1723,"Ġdeal":1724,"Ġsupport":1725,"Ġstuff":1726,"Ġgrou":1727,"Ġav":1728,"ĠMc":1729,"ches":1730,"Ġfine":1731,"Ġtou":1732,"Ġcapt":1733,"ĠÂĸ":1734,"Ġwalk":1735,"Ġcent":1736,"Ġself":1737,"Ġquality":1738,"Ġwants":1739,"Ġbrother":1740,"sh":1741,"Ġtown":1742,"!<":1743,"Ġdeser":1744,"Ġdoc":1745,"aving":1746,"ried":1747,").<":1748,"??":1749,"ages":1750,"oke":1751,"Ġmor":1752,"Ġcomment":1753,"Ġbased":1754,"use":1755,"what":1756,"Ġlist":1757,"Ġeff":1758,"ĠChar":1759,"Ġbra":1760,"Ġworks":1761,"Ġthroughout":1762,"Ġlost":1763,"where":1764,"Ġdaughter":1765,"Ġwriting":1766,"oil":1767,"orge":1768,"Ġannoy":1769,"Ġocc":1770,"Ġval":1771,"Ġvill":1772,"off":1773,"Ġsitu":1774,"chn":1775,"Ġtries":1776,"OT":1777,"amed":1778,"sych":1779,"Ġviewer":1780,"Ġhistory":1781,"Ġsn":1782,"using":1783,"to":1784,"Ġpat":1785,"Ġenjoyed":1786,"Ġimport":1787,"Ġson":1788,"Ġpresent":1789,"Ġgave":1790,"ĠWith":1791,"ination":1792,"Ġmed":1793,"ene":1794,"Ġsusp":1795,"Ġfair":1796,"Ġnum":1797,"Ġfinal":1798,"Ġmag":1799,"Ġsat":1800,"Ġhon":1801,"Ġdr":1802,"rib":1803,"ient":1804,"ms":1805,"ik":1806,"Ġlearn":1807,"ude":1808,"Ġturns":1809,"Ġparts":1810,"Ġappear":1811,"Ġcrit":1812,"Ġfem":1813,"ovie":1814,"19":1815,"Ġamazing":1816,"Ġetc":1817,"Ġnovel":1818,"Ġtoday":1819,"Ġstra":1820,"ern":1821,"rodu":1822,"arth":1823,"Ġthemselves":1824,"Ġfinally":1825,"Ġcol":1826,"Ġdays":1827,"Ġfavorite":1828,"Ġinf":1829,"Ġteen":1830,"ĠMichael":1831,"Ġprom":1832,"Ġgenre":1833,"ox":1834,"ajor":1835,"ished":1836,"Ġcontin":1837,"itive":1838,"Ġhorrible":1839,"Ġfoot":1840,"Ġcult":1841,"Ġlevel":1842,"Ġlate":1843,"Ġmoment":1844,"Ġshoot":1845,"Ġhilar":1846,"Ġgroup":1847,"Ġfeat":1848,"tra":1849,"Ġstarts":1850,"rop":1851,"Ġexact":1852,"ards":1853,"Ġbehind":1854,"ĠThen":1855,"Ġmyself":1856,"Ġdocument":1857,"Ġir":1858,"Ġfig":1859,"ĠRobert":1860,"yp":1861,"Ġstop":1862,"Ġ,":1863,"okes":1864,"Ġask":1865,"Ġkilled":1866,"ec":1867,"There":1868,"ĠEd":1869,"Ġkiller":1870,"Ġpick":1871,"Ġtyp":1872,"ĠGer":1873,"Ġconsider":1874,"ĠGe":1875,"Ġsays":1876,"Ġopp":1877,"Ġcost":1878,"ats":1879,"Ġmyster":1880,"iculous":1881,"Ġdeli":1882,"astic":1883,"ĠHer":1884,"Ġeffort":1885,"Ġincred":1886,"Ġtook":1887,"Ġeyes":1888,"ĠAlso":1889,"els":1890,"band":1891,"Ġthinking":1892,"arb":1893,"eth":1894,"ese":1895,"akers":1896,"Ġhappens":1897,"ĠWhy":1898,"Ġdecent":1899,"ĠJust":1900,"antly":1901,"ĠOf":1902,"Ġmot":1903,"Ġheard":1904,"ump":1905,"ĠWhile":1906,"ior":1907,"Ġbus":1908,"ĠDan":1909,"If":1910,"Ġvoice":1911,"Ġexperience":1912,"Ġintell":1913,"urt":1914,"AN":1915,"Ġevil":1916,"Ġconst":1917,"Ġmurder":1918,"Ġfa":1919,"Ġhilarious":1920,"uge":1921,"ys":1922,"Ġfore":1923,"Ġfeeling":1924,"ives":1925,"na":1926,"ĠQ":1927,"Ġsoon":1928,"Ġtype":1929,"ĠBrit":1930,"usband":1931,"Ġcinemat":1932,"owing":1933,"uc":1934,"ĠWar":1935,"Ġperhaps":1936,"Ġgirls":1937,"Ġnon":1938,"ĠMay":1939,"gs":1940,"Ġtele":1941,"ences":1942,"Ġste":1943,"AT":1944,"ST":1945,"Ġpsych":1946,".)":1947,"aul":1948,"Ġmajor":1949,"Ġchang":1950,"Ġinvolved":1951,"Ġprof":1952,"side":1953,"Ġstru":1954,"Ġridiculous":1955,"Ġroles":1956,"Ġdirected":1957,"ĠEvery":1958,"ek":1959,"ering":1960,"ters":1961,"Ġhit":1962,"Ġopin":1963,"Ġsle":1964,"Ġtold":1965,"antic":1966,"ĠGod":1967,"Ġcannot":1968,"Ġhold":1969,"ances":1970,"ator":1971,"ĠKe":1972,"Ġesc":1973,"ĠInd":1974,"Ġstories":1975,"Ġroom":1976,"zy":1977,"Ġchance":1978,"Ġpredict":1979,"aves":1980,"Ġlooked":1981,"Ġcheap":1982,"Ġsol":1983,"Ġwhite":1984,"Ġscore":1985,"Ġextremely":1986,"ement":1987,"ians":1988,"ots":1989,"ĠNow":1990,"Ġresult":1991,"ĠGr":1992,"Ġdream":1993,"Ġwin":1994,"Ġhusband":1995,"Ġdisco":1996,"anger":1997,"Ġmove":1998,"Ġleave":1999,"aced":2000,"Ġcrap":2001,"Ġuni":2002,"iddle":2003,"how":2004,"nded":2005,"Ġago":2006,"Ġstre":2007,"Ġquick":2008,"Ġshown":2009,"Ġwouldn":2010,"urb":2011,"Ġhappened":2012,"Ġcoming":2013,"Ġcool":2014,"Ġviolence":2015,"Ġweak":2016,"ĠPl":2017,"Ġbring":2018,"LL":2019,"rench":2020,"aces":2021,"dy":2022,"ĠMe":2023,"Ġevent":2024,"Ġ6":2025,"ones":2026,"OR":2027,"Ġswe":2028,"Ġant":2029,"Ġsimple":2030,"vol":2031,"Ġshock":2032,"ON":2033,"Ġtaken":2034,"ational":2035,"Ġtechn":2036,"ution":2037,"vision":2038,"ĠOr":2039,"Ġdesc":2040,"Ġmusical":2041,"cer":2042,"Ġsubject":2043,"Ġpos":2044,"iet":2045,"ron":2046,"ĠEnglish":2047,"aged":2048,"che":2049,"Ġage":2050,"any":2051,"gan":2052,"cks":2053,"mb":2054,"Ġbreak":2055,"Ġ200":2056,"nds":2057,"wards":2058,"Ġcountry":2059,"Ġknown":2060,"mp":2061,"AR":2062,"Ġvar":2063,"mm":2064,"rest":2065,"iety":2066,"ole":2067,"Ġacross":2068,"Ġobviously":2069,"Ġcareer":2070,"Ġreturn":2071,"Ġpolit":2072,"rit":2073,"ĠPet":2074,"ury":2075,"itting":2076,"ground":2077,"Ġstay":2078,"pping":2079,"!!!":2080,"But":2081,"Ġhighly":2082,"ield":2083,"...<":2084,"Ġinde":2085,"Ġapparent":2086,"Ġphot":2087,"Ġopening":2088,"Ġhuge":2089,"ĠDavid":2090,"Ġreleased":2091,"Ġcomed":2092,"Ġsaying":2093,"Ġfour":2094,"Ġang":2095,"Ġexactly":2096,"Ġfoc":2097,"Ġjokes":2098,"ĠPe":2099,"And":2100,"ral":2101,"Ġyourself":2102,"ĠCon":2103,"Ġdev":2104,"Ġsuspense":2105,"Ġhours":2106,"Ġannoying":2107,"Ġbody":2108,"Ġdoub":2109,"Ġlar":2110,"ctor":2111,"Ġfut":2112,"ered":2113,"Ġdeep":2114,"Ġbuild":2115,"ĠJames":2116,"Ġparticularly":2117,"Ġorder":2118,"rence":2119,"ubl":2120,"Ġsimilar":2121,"Ġopinion":2122,"ina":2123,"Ġdisc":2124,"Ġreality":2125,"real":2126,"omp":2127,"Ġgun":2128,"Ġsometimes":2129,"ball":2130,"enty":2131,"Ġpay":2132,"ili":2133,"Ġcinematography":2134,"Ġstarted":2135,"outh":2136,"Ġprem":2137,"Ġshots":2138,"Ġstrange":2139,"Ġwriter":2140,"oul":2141,"Ġpossible":2142,"Ġones":2143,"Ġnumber":2144,"ĠDo":2145,"iction":2146,"yond":2147,"Ġpull":2148,"Ġtreat":2149,"Ġends":2150,"Ġdest":2151,"hetic":2152,"Ġill":2153,"ĠPer":2154,"Ġgore":2155,"bel":2156,"eng":2157,"ential":2158,"aim":2159,"read":2160,"Ġdocumentary":2161,"Ġsubt":2162,"Ġsave":2163,"Ġnear":2164,"Ġchange":2165,"Ġhot":2166,"ĠAm":2167,"Ġhonest":2168,"ino":2169,"estern":2170,"****":2171,"Ġforget":2172,"Ġwish":2173,"Ġfill":2174,"Ġpolice":2175,"Ġnarr":2176,"Ġdisappointed":2177,"Ġmoder":2178,"Ġwhose":2179,"Ġimportant":2180,"Ġusual":2181,"Ġfilmm":2182,"Ġparent":2183,"Ġalone":2184,"ouble":2185,"Ġprot":2186,"ĠTom":2187,"Ġliving":2188,"Ġteam":2189,"Ġpri":2190,"ĠGerman":2191,"rise":2192,"Ġsister":2193,"Ġsomewhat":2194,"Ġdetail":2195,"wise":2196,"Ġturned":2197,"Ġfemale":2198,"Ġknew":2199,"Ġlocal":2200,"orth":2201,"Ġ20":2202,"Ġair":2203,"Ġunc":2204,"Ġfinds":2205,"ky":2206,"ĠRich":2207,"ING":2208,"oud":2209,"apan":2210,"Ġdru":2211,"Ġknows":2212,"Ġattention":2213,"Ġrunning":2214,"Ġsingle":2215,"ey":2216,"Ġrating":2217,"reci":2218,"ichÃ©":2219,"Ġsilly":2220,"!\"":2221,"ald":2222,"Ġwords":2223,"Ġvict":2224,"Ġproblems":2225,"Ġsent":2226,"lling":2227,"Ġstraight":2228,"Ġtaking":2229,"inc":2230,"ĠAd":2231,"Ġpot":2232,"Ġremind":2233,"oof":2234,"gy":2235,"Ġsold":2236,"mosp":2237,"ĠJe":2238,"Ġepisodes":2239,"Ġmist":2240,"unt":2241,"ained":2242,"Ġten":2243,"arch":2244,"lt":2245,"head":2246,"Ġland":2247,"Ġmiddle":2248,"Ġdespite":2249,"Ġsequence":2250,"Ġcontro":2251,"Ġmeet":2252,"ised":2253,"Ġinn":2254,"ires":2255,"Ġut":2256,"ush":2257,"Ġhell":2258,"Ġamong":2259,"which":2260,"ital":2261,"ĠNe":2262,"Ġrespect":2263,"Ġequ":2264,"Ġplan":2265,"Ġtouch":2266,"Ġconvin":2267,"Ġusually":2268,"orable":2269,"ants":2270,"Ġcompl":2271,"Ġatmosp":2272,"rely":2273,"Ġtalking":2274,"Ġcart":2275,"form":2276,"Ġevents":2277,"track":2278,"EN":2279,"ĠclichÃ©":2280,"usion":2281,"Ġmodern":2282,"Ġaren":2283,"Ġtells":2284,"Ġincluding":2285,"ĠBritish":2286,"ĠOsc":2287,"back":2288,"Ġsign":2289,"Ġeng":2290,"Ġca":2291,"Ġunf":2292,"Ġhands":2293,"Ġforg":2294,"ĠAny":2295,"ĠJapan":2296,"Ġtelevision":2297,"Ġdue":2298,"ĠWilliam":2299,"otic":2300,"lo":2301,"Ġgang":2302,"light":2303,"aker":2304,"ubb":2305,"ĠOK":2306,"Ġintellig":2307,"Ġmater":2308,"Ġve":2309,"Ġhop":2310,"ĠPh":2311,"Ġprevious":2312,"Ġmark":2313,"Ġappears":2314,"Ġquestion":2315,"Ġappreci":2316,"iod":2317,"Ġprog":2318,"As":2319,"Ġ80":2320,"Ġdull":2321,"Ġbox":2322,"Ġsets":2323,"ĠEl":2324,"Ġmostly":2325,"Ġenjoyable":2326,"Ġpredictable":2327,"Ġreve":2328,"ously":2329,"Ġsongs":2330,"aught":2331,"Ġhate":2332,"Ġodd":2333,"Ġseason":2334,"Ġscary":2335,"Ġsoundtrack":2336,"Ġromantic":2337,"Ġmaterial":2338,"iest":2339,"Ġaspect":2340,"attle":2341,"Ġupon":2342,"Ġapart":2343,"Ġseriously":2344,"Ġnone":2345,"Ġhappy":2346,"Ġpleas":2347,"orry":2348,"Ġbeyond":2349,"Ġclear":2350,"Ġadv":2351,"go":2352,"ĠTr":2353,"uri":2354,"Ġcheck":2355,"Ġways":2356,"Ġcamp":2357,"Ġhaven":2358,"Ġclearly":2359,"Ġeye":2360,"ĠPaul":2361,"Ġdoubt":2362,"Ġcomic":2363,"Ġspir":2364,"Ġabove":2365,"irector":2366,"Ġgiving":2367,"nding":2368,"Ġsurprised":2369,"oun":2370,"Ġflaw":2371,"Ġsequel":2372,"ĠSam":2373,"Ġeasily":2374,"who":2375,"Ġvisual":2376,"Ġfuture":2377,"Ġneeds":2378,"Ġtried":2379,"Ġear":2380,"Ġ197":2381,"key":2382,"Ġfeature":2383,"ublic":2384,"ĠAlthough":2385,"Ġsexual":2386,"asc":2387,"row":2388,"asy":2389,"Ġslight":2390,"Ġfalls":2391,"Ġvictim":2392,"work":2393,"Ġmessage":2394,"Ġtheat":2395,"ĠIM":2396,"ggest":2397,"Ġcreep":2398,"Ġfast":2399,"Ġshowing":2400,"Ġaccept":2401,"ĠOh":2402,"ressed":2403,"Ġbunch":2404,"ara":2405,"cl":2406,"rated":2407,"Ġbar":2408,"Ġentertainment":2409,"Ġmet":2410,"Ġstoryline":2411,"Ġrelease":2412,"ension":2413,"Ġ198":2414,"Ġsetting":2415,"Ġtheme":2416,"Ġadult":2417,"Ġmoving":2418,"?<":2419,"Ġsuggest":2420,"ltim":2421,"!!!!":2422,"oose":2423,"iel":2424,"Ġtwist":2425,"ĠFirst":2426,"inal":2427,"Ġpersonal":2428,"ĠDis":2429,"Ġactual":2430,"Ġexist":2431,"ival":2432,"ices":2433,"ĠFrench":2434,"Ġperiod":2435,"verage":2436,"',":2437,"ening":2438,"EA":2439,"irt":2440,"Ġemb":2441,"ĠGeorge":2442,"orld":2443,"Ġadapt":2444,"Ġlarge":2445,"Ġsupporting":2446,"ĠDr":2447,"oe":2448,"iment":2449,"Ġsurv":2450,"Ġzomb":2451,"ficult":2452,"let":2453,"Ġmeans":2454,"wr":2455,"Ġmil":2456,"Ġkept":2457,"Ġnamed":2458,"What":2459,"aur":2460,"Ġfeels":2461,"Ġeasy":2462,"Ġattack":2463,"Ġcomments":2464,"Ġparents":2465,"ĠMor":2466,"Ġelements":2467,"!)":2468,"IL":2469,"Ġspoil":2470,"Ġdifficult":2471,"Ġiss":2472,"Ġpost":2473,"bs":2474,"uses":2475,"Ġsecret":2476,"Ġfell":2477,"Ġdecided":2478,"Ġpoints":2479,"Ġthriller":2480,"Ġcomb":2481,"Ġherself":2482,"upp":2483,"Ġfilmed":2484,"ĠNOT":2485,"Ġworking":2486,"ĠFrank":2487,"ceed":2488,"kay":2489,"Ġwithin":2490,"ĠItal":2491,"Ġfree":2492,"Ġsuperb":2493,"Ġru":2494,"Ġviewing":2495,"Ġviewers":2496,"ially":2497,"Ġinsp":2498,"Ġbro":2499,"Ġ...":2500,"ĠPr":2501,"Ġtre":2502,"ĠRichard":2503,"Ġoverall":2504,"atural":2505,"bers":2506,"ĠGu":2507,"Ġtypical":2508,"Ġediting":2509,"ĠUS":2510,"ges":2511,"Ġbelievable":2512,"Ġwrit":2513,"ĠYork":2514,"Ġbrought":2515,"ising":2516,"Ġhear":2517,"Ġrealistic":2518,"Ġdie":2519,"Ġ*":2520,"Ġsuff":2521,"Ġintrodu":2522,"Ġspeak":2523,"Ġnearly":2524,"Ġtruth":2525,"Ġbuy":2526,"gic":2527,"bo":2528,"ĠOscar":2529,"Ġreviews":2530,"OU":2531,"Ġleads":2532,"Ġwit":2533,"verall":2534,"Ġusing":2535,"ee":2536,"aling":2537,"Ġsil":2538,"ĠMaybe":2539,"lin":2540,"oor":2541,"cious":2542,"Ġbegins":2543,"of":2544,"Ġbusiness":2545,"ma":2546,"Ġmix":2547,"Ġfigure":2548,"Ġfamous":2549,"esy":2550,"Ġgreatest":2551,"Ġsequences":2552,"Ġcur":2553,"Ġwhether":2554,"aby":2555,"St":2556,"Ġcity":2557,"Ġweird":2558,"atever":2559,"ĠAmerica":2560,"Ġpremise":2561,"Ġtheater":2562,"Ġbackground":2563,"Ġmeaning":2564,"Ġdan":2565,"Ġbasically":2566,"Al":2567,"piece":2568,"Ġnorm":2569,"Ġexpected":2570,"Ġatmosphere":2571,"Ġclim":2572,"Ġfive":2573,"Ġsoc":2574,"ĠJul":2575,"Ġparticular":2576,"sw":2577,"Ġtale":2578,"Ġobs":2579,"Ġsens":2580,"rific":2581,"ĠSim":2582,"ively":2583,"Ġfantastic":2584,"esome":2585,"Ġdumb":2586,"ĠCol":2587,"Ġanimation":2588,"Ġsituation":2589,"ES":2590,"ged":2591,"omin":2592,"Ġfront":2593,"Ġ199":2594,"more":2595,"af":2596,"irc":2597,"ĠJim":2598,"Ġcrime":2599,"Ġwait":2600,"Ġund":2601,"hic":2602,"lfriend":2603,"ining":2604,"ĠSch":2605,"ĠUnfortunately":2606,"Ġstri":2607,"dden":2608,"?\"":2609,"Ġpure":2610,"lier":2611,"Ġid":2612,"ula":2613,"set":2614,"Ġstun":2615,"ogn":2616,"ĠMost":2617,"iences":2618,"ĠAust":2619,"Ġsurprise":2620,"ĠPeter":2621,"Ġrock":2622,"ĠFrom":2623,"ĠIMD":2624,"Ġred":2625,"time":2626,"ĠWho":2627,"fer":2628,"Ġlim":2629,"Ġleaves":2630,"Ġdog":2631,"ĠYes":2632,"Ġlots":2633,"Ġcrew":2634,"lect":2635,"Ġkilling":2636,"Ġpoorly":2637,"icks":2638,"Ġbecame":2639,"Ġapparently":2640,"uro":2641,"Ġemotional":2642,"urther":2643,"Ġfootage":2644,"Ġutter":2645,"Ġappro":2646,"Ġtast":2647,"Ġresp":2648,"Ġneeded":2649,"Ġstere":2650,"Ġwood":2651,"Ġrese":2652,"hys":2653,"Ġinte":2654,"ĠLee":2655,"Ġavoid":2656,"ored":2657,"Ġforced":2658,"ĠCan":2659,"Ġcat":2660,"ager":2661,"Ġlame":2662,"Ġgone":2663,"Ġ/>\"":2664,"Ġaverage":2665,"Ġsudden":2666,"Ġbored":2667,"Ġstrugg":2668,"ye":2669,"Ġwind":2670,"ĠMon":2671,"Ġclever":2672,"bb":2673,"Ġexec":2674,"ĠGra":2675,"ĠAng":2676,"Ġmemorable":2677,"Ġgrand":2678,"Ġstage":2679,"'.":2680,"Ġcredits":2681,"Ġmale":2682,"arre":2683,"ĠCom":2684,"Ġallow":2685,"ĠKing":2686,"spect":2687,"bert":2688,"pend":2689,"Ġcopy":2690,"Ġpublic":2691,"Ch":2692,"Ġminute":2693,"ĠEx":2694,"Ġwrite":2695,"Ġ$":2696,"ĠTw":2697,"ĠBen":2698,"Ġsick":2699,"rey":2700,"ĠLike":2701,"Ġsociety":2702,"Ġinterested":2703,"friend":2704,"Ġmonster":2705,"Ġprop":2706,"Ġultim":2707,"Ġshame":2708,"Ġliter":2709,"Ġbel":2710,"ĠQu":2711,"rom":2712,"Ġfire":2713,"cers":2714,"ĠFilm":2715,"Ġemotion":2716,"Ġunique":2717,"Ġfeatures":2718,"ries":2719,"Ġanyway":2720,"ett":2721,"Ġperfectly":2722,"over":2723,"Ġproject":2724,"Ġdesign":2725,"Ġlaughs":2726,"ĠAN":2727,"Ġspace":2728,"lor":2729,"Ġsomehow":2730,"Ġmeets":2731,"So":2732,"ume":2733,"Ġkeeps":2734,"ills":2735,"iliar":2736,"Ġnature":2737,"angu":2738,"ius":2739,"agon":2740,"Ġprison":2741,"Ġexpress":2742,"Ġvillain":2743,"Ġquickly":2744,"ĠPar":2745,"ĠIts":2746,"ived":2747,"isf":2748,"ĠSm":2749,"anks":2750,"reed":2751,"erv":2752,"ĠMart":2753,"Ġmeant":2754,"Ġstereot":2755,"Ġcheesy":2756,"Ġgirlfriend":2757,"Ġcover":2758,"Ġmill":2759,"Ġlos":2760,"Ġheav":2761,"Ġlaw":2762,"Ġoper":2763,"Ġdam":2764,"Ġadvent":2765,"bor":2766,"ai":2767,"Ġforward":2768,"Ġconcept":2769,"por":2770,"Ġer":2771,"urd":2772,"Ġreading":2773,"Ġworked":2774,"Ġrealize":2775,"hood":2776,"Ġmad":2777,"Ġment":2778,"chie":2779,"Ġamount":2780,"Ġimagine":2781,"Ġmystery":2782,"ĠDisney":2783,"acy":2784,"My":2785,"ĠWood":2786,"action":2787,"Ġearlier":2788,"ises":2789,"Ġyes":2790,"Ġunlike":2791,"acing":2792,"Ġdisturb":2793,"Ġprofess":2794,"eless":2795,"Ġromance":2796,"RE":2797,"ned":2798,"well":2799,"ĠThese":2800,"Ġmasterpiece":2801,"Ġconne":2802,"Ġbadly":2803,"ĠJapanese":2804,"ĠGood":2805,"Ġcry":2806,"Ġagree":2807,"Ġgeneral":2808,"Ġpurp":2809,"Ġgay":2810,"Ġ70":2811,"Ġpopular":2812,"?)":2813,"iny":2814,"Ġrepe":2815,"host":2816,"opp":2817,"Ġwhom":2818,"ĠBy":2819,"Ġcap":2820,"Ġthird":2821,"arry":2822,"ask":2823,"ĠAf":2824,"Ġenc":2825,"Ġscreenplay":2826,"Ġhistor":2827,"ze":2828,"allow":2829,"Ġpossibly":2830,"Ġband":2831,"Ġvarious":2832,"Ġextra":2833,"Ġbrings":2834,"Ġrecogn":2835,"Ġolder":2836,"Ġtotal":2837,"ĠIMDb":2838,"Ġfasc":2839,"ĠChe":2840,"Ġadmit":2841,"kn":2842,"Ġpowerful":2843,"Ġtowards":2844,"aked":2845,"Ġincredibly":2846,"ring":2847,"ana":2848,"Ġtrad":2849,"Ġjoke":2850,"Ġbare":2851,"Ġ30":2852,"Ġdance":2853,"Ġ195":2854,"Ġcolle":2855,"Ġwriters":2856,"ĠScott":2857,"oman":2858,"Ġinnoc":2859,"cher":2860,"cessary":2861,"stead":2862,"\")":2863,"Ġconv":2864,"look":2865,"Ġacted":2866,"Ġcollect":2867,"You":2868,"Ġbattle":2869,"Ġreasons":2870,"arring":2871,"unny":2872,"Ġcartoon":2873,"Ġhom":2874,"king":2875,"Ġrich":2876,"Ġdevelopment":2877,"olf":2878,"itty":2879,"Ġfails":2880,"Ġplease":2881,"rif":2882,"Ġinside":2883,"Ġoccas":2884,"Ġeventually":2885,"Ġspent":2886,"erm":2887,"Ġnor":2888,"belie":2889,"ĠPat":2890,"Ġportrayed":2891,"Ġfairly":2892,"Ġjour":2893,"Ġdirecting":2894,"Ġdeserves":2895,"Ġsleep":2896,"Ġcreepy":2897,"Ġattract":2898,"An":2899,"ĠSu":2900,"Ġflat":2901,"ĠTra":2902,"Ġcirc":2903,"Ġinvest":2904,"par":2905,"ases":2906,"ĠLu":2907,"Ġimm":2908,"ford":2909,"OO":2910,"Ġvamp":2911,"ĠNight":2912,"Ġ90":2913,"Ġscient":2914,"Ġdramatic":2915,"Ġwasted":2916,"itted":2917,"Ġdirectors":2918,"ĠBlack":2919,"Ġcatch":2920,"udd":2921,"Ġsounds":2922,"Ġbeauty":2923,"Ġmanages":2924,"Ġattempts":2925,"ivid":2926,"with":2927,"ips":2928,"roy":2929,"Ġideas":2930,"Ġplain":2931,"Ġcond":2932,"Ġleading":2933,"vered":2934,"ague":2935,"Ġexpecting":2936,"Ġcreate":2937,"bl":2938,"Ġcommun":2939,"Ġspirit":2940,"Ġign":2941,"Ġbed":2942,"Ġ`":2943,"erry":2944,"Ġphys":2945,"Ġlangu":2946,"men":2947,"Ġident":2948,"inary":2949,"ĠBra":2950,"ĠDes":2951,"All":2952,"Ġpolitical":2953,"Ġplenty":2954,"ĠEuro":2955,"udity":2956,"Ġboys":2957,"ĠAle":2958,"medi":2959,"ero":2960,"Ġneg":2961,"Ġmembers":2962,"Ġ:":2963,"Ġaut":2964,"Ġsorry":2965,"Ġfamiliar":2966,"Ġcaught":2967,"Ġended":2968,"Ġindeed":2969,"mist":2970,"Ġexplain":2971,"Ġrecord":2972,"yl":2973,"ĠRuss":2974,"resh":2975,"ĠJoe":2976,"boy":2977,"cause":2978,"Ġmissing":2979,"Ġrevol":2980,"Ġsymp":2981,"Ġstat":2982,"andy":2983,"acher":2984,"arrass":2985,"ades":2986,"Ġfighting":2987,"Ġaccident":2988,"Ġaff":2989,"Ġoffic":2990,"Ġoutside":2991,"Ġpositive":2992,"gest":2993,"Ġess":2994,"Ġmatch":2995,"oles":2996,"rel":2997,"onic":2998,"Ġachie":2999,"Ġwater":3000,"Ġlaughing":3001,"Ġpotential":3002,"izing":3003,"Ġsweet":3004,"een":3005,"Ġnote":3006,"Ġrob":3007,"Ġhair":3008,"ĠWorld":3009,"lu":3010,"Ġcommon":3011,"mas":3012,"ĠHere":3013,"Ġ!":3014,"ĠWatch":3015,"Ġrecently":3016,"Ġest":3017,"Ġjud":3018,"Ġremake":3019,"val":3020,"Ġporn":3021,"irl":3022,"ĠGreat":3023,"Ġtalented":3024,"Ġfilmmakers":3025,"hel":3026,"Ġrequ":3027,"cent":3028,"zz":3029,"Ġembarrass":3030,"Ġble":3031,"Ġclaim":3032,"Ġflash":3033,"Ġtravel":3034,"Ġpace":3035,"Ġdepth":3036,"Ġcreated":3037,"ashing":3038,"Ġ(\"":3039,"cked":3040,"Ġtelling":3041,"Ġescape":3042,"ites":3043,"Ġsocial":3044,"Ġfunn":3045,"ĠOther":3046,"Ġimpro":3047,"ology":3048,"Ġera":3049,"ĠPro":3050,"Ġimmedi":3051,"Ġrelig":3052,"iers":3053,"ĠItalian":3054,"Ġidi":3055,"Ġintri":3056,"Ġbother":3057,"Ġbiz":3058,"iced":3059,"ĠMat":3060,"Ġansw":3061,"ĠBill":3062,"Ġbrain":3063,"Ġtrail":3064,"Ġfollowing":3065,"IS":3066,"ha":3067,"Ġstep":3068,"Ġcomplex":3069,"Ġmissed":3070,"Ġwestern":3071,"Ġwhatever":3072,"emy":3073,"Ġarri":3074,"Ġcrazy":3075,"Ġnudity":3076,"ieces":3077,"iously":3078,"Ġbrief":3079,"Ġmurd":3080,"Ġcute":3081,"vil":3082,"Ġaf":3083,"venge":3084,"Ġamb":3085,"Ġhardly":3086,"Ġhy":3087,"Ġformer":3088,"ĠVan":3089,"while":3090,"uine":3091,"asher":3092,"umes":3093,"Ġmedi":3094,"Ġwaiting":3095,"Ġcredit":3096,"Ġanti":3097,"rect":3098,"uter":3099,"sters":3100,"Ġ15":3101,"000":3102,"Ġmentioned":3103,"Ġslightly":3104,"Ġstereotyp":3105,"Ġlady":3106,"imp":3107,"Ġdecides":3108,"Ġfurther":3109,"Ġrece":3110,"Ġuses":3111,"Ġsees":3112,"ibility":3113,"Ġmel":3114,"Ġforgot":3115,"Ġconvincing":3116,"Ġmod":3117,"ĠAct":3118,"rage":3119,"Ġclos":3120,"ĠInstead":3121,"berg":3122,"Ġdesper":3123,"arl":3124,"Ġstore":3125,"Ġdraw":3126,"ging":3127,"Ġcasting":3128,"Ġsubtle":3129,"Ġmid":3130,"vern":3131,"Ġdoll":3132,"ele":3133,"ĠTim":3134,"Ġcontrol":3135,"Ġentirely":3136,"eg":3137,"Ġmass":3138,"ossible":3139,"Ġfollows":3140,"ishing":3141,"Ġportrayal":3142,"Ġdelight":3143,"Ġappreciate":3144,"Ġfit":3145,"itation":3146,"Ġaccent":3147,"ĠEurope":3148,"Ġvalue":3149,"Ġpointless":3150,"Ġexplo":3151,"Ġdied":3152,"Ġdoctor":3153,"su":3154,"Ġtension":3155,"Ġrad":3156,"Ġmarried":3157,"ĠMad":3158,"ĠPark":3159,"lict":3160,"lying":3161,"Ġwrote":3162,"Ġine":3163,"alth":3164,"inating":3165,"ĠHor":3166,"Ġrate":3167,"ashion":3168,"Ġcolor":3169,"Ġsum":3170,"Ġgenuine":3171,"iff":3172,"Ġunbelie":3173,"Ġremark":3174,"Ġ193":3175,"PO":3176,"cast":3177,"uted":3178,"VER":3179,"con":3180,"Ġstick":3181,"Ġscream":3182,"Ġtort":3183,"uster":3184,"ĠEn":3185,"inger":3186,"annel":3187,"come":3188,"Ġchoice":3189,"Ġfantasy":3190,"Ġmoves":3191,"Ġproduced":3192,"Ġyounger":3193,"ED":3194,"iving":3195,"ĠSer":3196,"iller":3197,"Ġdepict":3198,"ĠStar":3199,"Ġ196":3200,"Ġsolid":3201,"fi":3202,"elly":3203,"ipp":3204,"Ġsituations":3205,"ilt":3206,"Ġimages":3207,"idden":3208,"Ġcritic":3209,"sequ":3210,"Ġbiggest":3211,"alt":3212,"this":3213,"str":3214,"Ġfol":3215,"Ġgarb":3216,"One":3217,"ĠSw":3218,"Ġlonger":3219,"Ġsuccessful":3220,"Ġsatisf":3221,"Ġlanguage":3222,"lusion":3223,"Ġincredible":3224,"Ġsoul":3225,"ĠLet":3226,"Ġwall":3227,"Ġground":3228,"Ġexciting":3229,"Ġintelligent":3230,"ĠJane":3231,"Ġdecide":3232,"standing":3233,"How":3234,"Ġcru":3235,"Ġdanger":3236,"oph":3237,"oes":3238,"ened":3239,"Ġweek":3240,"Ġcontr":3241,"irty":3242,"Ġamusing":3243,"Ġrap":3244,"Ġwild":3245,"aging":3246,"Ġhumour":3247,"Ġcompany":3248,"Ġpurpose":3249,"Ġearth":3250,"ille":3251,"Ġparty":3252,"ateur":3253,"OW":3254,"Ġcompet":3255,"Ġregard":3256,"Ġunfortunately":3257,"Ġeffective":3258,"ding":3259,"Ġrecent":3260,"TH":3261,"no":3262,"arily":3263,"ified":3264,"Ġspend":3265,"Ġtrain":3266,"ribly":3267,"Ġmach":3268,"room":3269,"Ġbrut":3270,"Ġbizarre":3271,"ette":3272,"Ġtrouble":3273,"Ġtrack":3274,"Ġlikes":3275,"known":3276,"gend":3277,"aus":3278,"Ġrefe":3279,"ization":3280,"wart":3281,"Ġfocus":3282,"Ġquestions":3283,"OM":3284,"Ġbreat":3285,"appe":3286,"ki":3287,"Ġinform":3288,"ĠII":3289,"Ġotherwise":3290,"ĠIr":3291,"Ġweren":3292,"Ġglad":3293,"Ġprogram":3294,"Ġauth":3295,"itary":3296,"Ġmood":3297,"Ġunless":3298,"Ġdrug":3299,"Ġsuspect":3300,"Ġproducers":3301,"Ġterror":3302,"Ġchanged":3303,"ĠLou":3304,"Ġkills":3305,"Ġvalues":3306,"Ġsci":3307,"Ġconcern":3308,"Ġviolent":3309,"Ġjump":3310,"Ġfilled":3311,"Ġcollege":3312,"Ġfake":3313,"ĠMovie":3314,"Ġluck":3315,"Ġimpressive":3316,"Ġcontinu":3317,"ĠDead":3318,"anda":3319,"Ġshowed":3320,"Ġcompe":3321,"ĠCra":3322,"Ġcross":3323,"Ġrepres":3324,"ĠMac":3325,"Ġinvolving":3326,"Ġ50":3327,"Ġpathetic":3328,"ĠLove":3329,"ĠChristmas":3330,"Ġgarbage":3331,"idered":3332,"mistry":3333,"Ġmer":3334,"ĠHitch":3335,"ĠGold":3336,"Ġunin":3337,"Ġopportun":3338,"iche":3339,"Ġslasher":3340,"movie":3341,"ĠBoy":3342,"On":3343,"ares":3344,"Ġcompared":3345,"ĠBig":3346,"ĠRock":3347,"Ġspot":3348,"even":3349,"iding":3350,"Ġsuc":3351,"Don":3352,"ĠFred":3353,"Ġamateur":3354,"Ġfailed":3355,"ength":3356,"BC":3357,"ĠOF":3358,"Ġstreet":3359,"LE":3360,"Ġaffect":3361,"Ġfear":3362,"Ġbarely":3363,"Ġdisg":3364,"ective":3365,"ottom":3366,"Ġculture":3367,"Ġtaste":3368,"Ġsuddenly":3369,"Ġinterview":3370,"Ġrede":3371,"min":3372,"Ġtest":3373,"Ġbought":3374,"ĠRed":3375,"Ġawesome":3376,"ĠAfric":3377,"Ġbeat":3378,"Ġ194":3379,"Ġsinging":3380,"Ġchemistry":3381,"Ġproduct":3382,"ĠFran":3383,"Ġdancing":3384,"Ġspect":3385,"Ġball":3386,"Ġability":3387,"aper":3388,"Ġtrash":3389,"Ġavail":3390,"Ġcause":3391,"Ġaccur":3392,"Ġconsidered":3393,"ener":3394,"Ġkick":3395,"Ġcarry":3396,"Ġdisturbing":3397,"Ġsearch":3398,"Ġmanner":3399,"ondon":3400,"round":3401,"Ġfat":3402,"Ġcontri":3403,"Ġstudio":3404,"Ġbull":3405,"Ġstate":3406,"Ġexception":3407,"cted":3408,"iles":3409,"Ġroll":3410,"ĠStre":3411,"ales":3412,"Ġimmediately":3413,"une":3414,"Ġreveal":3415,"inn":3416,"Ġghost":3417,"Ġisland":3418,"Ġrepl":3419,"Ġbooks":3420,"Ġdeliver":3421,"aven":3422,"Ġbomb":3423,"ĠRay":3424,"Ġimpossible":3425,"Ġcrim":3426,"***":3427,"Ġsucceed":3428,"fort":3429,"ĠFl":3430,"Ġthinks":3431,"Ġshooting":3432,"For":3433,"Ġhang":3434,"Ġaudiences":3435,"aff":3436,"idence":3437,"Ġrand":3438,"Ġroad":3439,"ĠIndian":3440,"war":3441,"Ġtough":3442,"Ġtrip":3443,"rupt":3444,"Ġimpression":3445,"Ġcold":3446,"ĠDra":3447,"Ġleaving":3448,"Ġgovern":3449,"cock":3450,"reg":3451,"Ġsuit":3452,"Ġoffice":3453,"Ġgod":3454,"Ġminor":3455,"Ġbasic":3456,"Ġgag":3457,"ILER":3458,"iver":3459,"reaking":3460,"Ġappeal":3461,"Ġruns":3462,"Ġissues":3463,"ĠCity":3464,"ĠHouse":3465,"Ġfavour":3466,"ĠAlex":3467,"Ġpack":3468,"Ġpun":3469,"Ġpract":3470,"rian":3471,"ĠMel":3472,"Ġ100":3473,"night":3474,"ĠMur":3475,"Ġdoor":3476,"izes":3477,"ensive":3478,"Ġconsidering":3479,"ĠPerhaps":3480,"Ġlau":3481,"Ġgenius":3482,"POILER":3483,"Ġsitting":3484,"iring":3485,"Ġredeem":3486,"Ġfashion":3487,"ify":3488,"ĠBer":3489,"ĠST":3490,"ĠLondon":3491,"Ġlikely":3492,"ĠCor":3493,"Ġship":3494,"Ġunex":3495,"ĠYe":3496,"rences":3497,"Ġinvestig":3498,"Ġadded":3499,"Ġconclusion":3500,"rid":3501,"Ġpers":3502,"Ġtwists":3503,"lessly":3504,"Ġloud":3505,"ĠBur":3506,"Ġinsult":3507,"Ġrandom":3508,"amb":3509,"Ġclot":3510,"Ġnatural":3511,"irth":3512,"Ġstunning":3513,"Ġnotice":3514,"that":3515,"Ġappearance":3516,"Ġbaby":3517,"ste":3518,"oop":3519,"Ġdef":3520,"making":3521,"Ġoccur":3522,"owers":3523,"aining":3524,"icated":3525,"ĠMary":3526,"Ġsmart":3527,"ĠAnother":3528,"ĠWay":3529,"aine":3530,"Ġalive":3531,"cle":3532,"ĠAg":3533,"Ġterms":3534,"Ġauthor":3535,"AS":3536,"kin":3537,"Ġgem":3538,"ands":3539,"ĠAngel":3540,"Ġsav":3541,"Ġlab":3542,"Ġscenery":3543,"Ġprep":3544,"Ġrespons":3545,"Ġgrap":3546,"opher":3547,"ĠEm":3548,"ĠBru":3549,"Ġpresence":3550,"Ġindust":3551,"Ġadventure":3552,"Ġneither":3553,"Ġfresh":3554,"Ġcomputer":3555,"ĠSure":3556,"ĠBob":3557,"Ġfaith":3558,"you":3559,"vert":3560,"ĠEarth":3561,"Ġstandard":3562,"Ġdestroy":3563,"Ġnormal":3564,"ID":3565,"ĠBat":3566,"Ġcentury":3567,"ĠCharles":3568,"Ġwee":3569,"Ġsomewhere":3570,"Ġmanaged":3571,"ĠStan":3572,"Ġrevenge":3573,"Ġcinematic":3574,"Ġavailable":3575,"ĠNor":3576,"anna":3577,"ological":3578,"Ġheavy":3579,"icide":3580,"Ġjourney":3581,"\".<":3582,"ena":3583,"riage":3584,"ths":3585,"Ġremains":3586,"Ġsoldiers":3587,"Ġobsess":3588,"Ġmult":3589,"ĠBest":3590,"Ġnowhere":3591,"Ġboyfriend":3592,"Ġapproach":3593,"Ġultimately":3594,"Ġneigh":3595,"Ġrare":3596,"Ġokay":3597,"ictor":3598,"itions":3599,"Ġuns":3600,"Ġaffair":3601,"stem":3602,"Ġforce":3603,"ĠBel":3604,"ĠAustral":3605,"Ġflashback":3606,"Ġsuppose":3607,"Ġsexy":3608,"Ġpassion":3609,"Ġconstantly":3610,"oned":3611,"Ġdro":3612,"Ġconflict":3613,"Ġthreat":3614,"Ġthrown":3615,"athy":3616,"Ġmagic":3617,"Ġzombie":3618,"Ġclimax":3619,"Ġintrigu":3620,"Ġdescrib":3621,"Ġemotions":3622,"ropri":3623,"Ġchanges":3624,"Ġphotography":3625,"iven":3626,"Ġjo":3627,"ĠJones":3628,"Ġadaptation":3629,"ĠAnn":3630,"riff":3631,"Ġnarrative":3632,"Ġdetails":3633,"face":3634,"esides":3635,"Ġnames":3636,"Ġbeautifully":3637,"ivers":3638,"Ġstarring":3639,"ĠHol":3640,"Ġutterly":3641,"estival":3642,"Ġliterally":3643,"ented":3644,"Ġcharming":3645,"Ġdin":3646,"Ġoffer":3647,"Ġdemon":3648,"Ġwitness":3649,"ander":3650,"just":3651,"Ġast":3652,"ĠHam":3653,"ĠDirector":3654,"ĠParis":3655,"itude":3656,"Ġplaces":3657,"played":3658,"Ġprotagon":3659,"Ġdig":3660,"ĠHigh":3661,"Ġbehav":3662,"ressing":3663,"Ġterrific":3664,"vey":3665,"orts":3666,"Ġhistorical":3667,"Ġtone":3668,"Ġcuri":3669,"arm":3670,"Ġanimated":3671,"Ġintended":3672,"Ġcommer":3673,"Ġindivid":3674,"Ġescap":3675,"Ġinnocent":3676,"urch":3677,"Ġinflu":3678,"gl":3679,"uts":3680,"Ġlaughable":3681,"Ġstands":3682,"Ġtradition":3683,"elling":3684,"oking":3685,"Ġcomedies":3686,"ĠVery":3687,"Ġcompar":3688,"lease":3689,"ĠAnt":3690,"Ġrecommended":3691,"Ġdisappointing":3692,"Ġdrink":3693,"Ġsix":3694,"Ġscience":3695,"Ġfeelings":3696,"board":3697,"Ġsqu":3698,"ĠSmith":3699,"Ġhost":3700,"Ġpresented":3701,"oices":3702,"ĠSci":3703,"ability":3704,"OV":3705,"unting":3706,"arsh":3707,"Ġfinish":3708,"Ġtouching":3709,"Ġaddition":3710,"Ġputs":3711,"awn":3712,"Ġthrow":3713,"ĠWhere":3714,"Ġgenerally":3715,"Ġpainful":3716,"Ġcostumes":3717,"Ġfilming":3718,"Ġchall":3719,"Ġsurprisingly":3720,"ospital":3721,"Ġunbelievable":3722,"field":3723,"Ġsurround":3724,"part":3725,"ĠMiss":3726,"Ġleg":3727,"Ġspec":3728,"Ġabsurd":3729,"ĠJeff":3730,"Ġpieces":3731,"Ġgold":3732,"Ġthemes":3733,"Ġplus":3734,"Ġcharm":3735,"Ġmilitary":3736,"Ġfool":3737,"Ġloose":3738,"ica":3739,"Ġur":3740,"Ġbuilding":3741,"Ġgovernment":3742,"ĠCal":3743,"IT":3744,"Ġsoft":3745,"Ġteacher":3746,"Ġaspects":3747,"ĠCG":3748,"Ġloves":3749,"Ġboss":3750,"ĠStill":3751,"ĠChristian":3752,"Ġmedioc":3753,"ode":3754,"ivil":3755,"Ġobject":3756,"Ġslowly":3757,"He":3758,"oh":3759,"Ġsystem":3760,"AD":3761,"Ġfully":3762,"Ġoffe":3763,"Ġlovely":3764,"Ġmakers":3765,"Ġintense":3766,"Ġdisappointment":3767,"Ġhoping":3768,"ghed":3769,"ĠSec":3770,"ĠHitchcock":3771,"ĠBro":3772,"ĠBecause":3773,"Ġmistake":3774,"Ġtired":3775,"Ġ18":3776,"Ġindividual":3777,"pro":3778,"ĠCharlie":3779,"down":3780,"Ġsto":3781,"ĠHen":3782,"ploy":3783,"CH":3784,"Ġexpectations":3785,"Ġdate":3786,"illing":3787,"ĠOnly":3788,"house":3789,"ta":3790,"Ġburn":3791,"Ġacts":3792,"anted":3793,"Ġalien":3794,"Ġ60":3795,"ples":3796,"Ġartist":3797,"Ġspl":3798,"Ġlength":3799,"oughly":3800,"Ġsilent":3801,"Ġmillion":3802,"budget":3803,"Ġelement":3804,"Ġener":3805,"Ġexcuse":3806,"ĠSteve":3807,"Ġopportunity":3808,"now":3809,"entially":3810,"Ġdefe":3811,"Ġdiscuss":3812,"Ġride":3813,"Ġdiscover":3814,"Ġcommercial":3815,"ĠHarry":3816,"Ġmoral":3817,"Ġmagn":3818,"Ġequally":3819,"gue":3820,"Ġdad":3821,"Ġkey":3822,"Ġcurrent":3823,"ĠTwo":3824,"rem":3825,"ĠDark":3826,"ached":3827,"Ġfascinating":3828,"?!":3829,"Ġdim":3830,"Ġstudent":3831,"Ġmysterious":3832,"IG":3833,"Ġinit":3834,"Ġoutstanding":3835,"under":3836,"ision":3837,"Ġlif":3838,"Ġproper":3839,"istent":3840,"Ġsubst":3841,"Ġintern":3842,"Ġ40":3843,"ĠCr":3844,"Ġdrive":3845,"ribe":3846,"aint":3847,"ĠRy":3848,"ĠStr":3849,"Ġcontains":3850,"ĠX":3851,"ĠMark":3852,"ĠGl":3853,"ooks":3854,"Ġknowing":3855,"Ġnumb":3856,"ĠYet":3857,"Ġdrunk":3858,"ĠTony":3859,"ĠWW":3860,"Ġimpl":3861,"Ġinclude":3862,"win":3863,"Ġord":3864,"Ġqual":3865,"Ġcontent":3866,"heart":3867,"Ġdiv":3868,".....":3869,"Ġlegend":3870,"ĠAdam":3871,"anch":3872,"asty":3873,"ĠBruce":3874,"uit":3875,"akespe":3876,"Ġdesert":3877,"ledge":3878,"Ġhappening":3879,"Ġlaughed":3880,"Ġsight":3881,"onna":3882,"Ġpictures":3883,"ĠPeople":3884,"ĠSouth":3885,"Ġserial":3886,"ĠDu":3887,"ĠPol":3888,"ĠFe":3889,"Ġstudents":3890,"Ġmouth":3891,"sey":3892,"Ġwalking":3893,"ĠWest":3894,"ini":3895,"Ġdies":3896,"Ġprocess":3897,"appy":3898,"Ġlived":3899,"ĠChris":3900,"mbol":3901,"ĠTar":3902,"Ġconfusing":3903,"ĠStewart":3904,"Ġmelod":3905,"lyn":3906,"Ġirrit":3907,"Ġcritics":3908,"ĠJean":3909,"Ġflicks":3910,"IE":3911,"ĠThough":3912,"Ġdisaster":3913,"Ġdisgust":3914,"ural":3915,"Ġimage":3916,"Ġdifference":3917,"hor":3918,"ront":3919,"ĠVictor":3920,"Ġrace":3921,"Ġtrag":3922,"pret":3923,"Ġseg":3924,"ĠHard":3925,"ĠDou":3926,"ĠNothing":3927,"Ġphotograp":3928,"Ġbreath":3929,"Ġcompelling":3930,"Ġclean":3931,"mon":3932,"Ġdread":3933,"ĠJew":3934,"Ġlacks":3935,"Ġrelationships":3936,"ĠBar":3937,"Ġserv":3938,"dered":3939,"ham":3940,"inct":3941,"Ġproducer":3942,"Ġlocation":3943,"Ġimpressed":3944,"Ġoppos":3945,"Ġfolks":3946,"Ġedge":3947,"Ġdrawn":3948,"vir":3949,"Ġfaces":3950,"asing":3951,"Ġlikable":3952,"Ġmarriage":3953,"table":3954,"inally":3955,"Ġvirt":3956,"ĠBad":3957,"Ġcorrect":3958,"Ġcell":3959,"Ġshare":3960,"ift":3961,"Ġhelps":3962,"gly":3963,"Ġ****":3964,"Ġconfused":3965,"exic":3966,"ĠAb":3967,"Ġrip":3968,"Ġadds":3969,"Ġdeveloped":3970,"Ġdrugs":3971,"uous":3972,"rend":3973,"Not":3974,"We":3975,"Ġappeared":3976,"Ġinformation":3977,"uel":3978,"Ġthor":3979,"ĠOverall":3980,"writer":3981,"ĠMartin":3982,"ss":3983,"Ġhospital":3984,"Ġpil":3985,"ĠSand":3986,"That":3987,"ppy":3988,"Ġgorge":3989,"ĠNever":3990,"gged":3991,"good":3992,"erous":3993,"aries":3994,"Ġgiant":3995,"Ġforever":3996,"pendent":3997,"Ġspectac":3998,"thur":3999,"tend":4000,"Ġremote":4001,"Ġprim":4002,"Ġlighting":4003,"Ġdelivers":4004,"AL":4005,"ency":4006,"ĠKelly":4007,"Sh":4008,"Ġmir":4009,"Ġvictims":4010,"Ġge":4011,"ĠFox":4012,"ĠShakespe":4013,"Ġmotion":4014,"Ġfault":4015,"Ġflaws":4016,"ĠRam":4017,"Ġseemingly":4018,"omething":4019,"Ġsymbol":4020,"Ġnegative":4021,"omas":4022,"text":4023,"ka":4024,"Ġpaid":4025,"ĠCo":4026,"Ġchase":4027,"Ġoffers":4028,"Ġvampire":4029,"Ġanswer":4030,"When":4031,"ĠGar":4032,"Ġnews":4033,"Ġwondering":4034,"ops":4035,"uddy":4036,"Ġdreams":4037,"Ġnaked":4038,"ĠEast":4039,"Ġcrow":4040,"Overall":4041,"ken":4042,"Ġanymore":4043,"ĠAND":4044,"Ġmulti":4045,"Ġjoy":4046,"Ġmainly":4047,"Ġtrailer":4048,"anced":4049,"rog":4050,"Ġrout":4051,"Ġresc":4052,"Ġhasn":4053,"ĠSee":4054,"aches":4055,"Ġallowed":4056,"Ġfright":4057,"ita":4058,"ĠIS":4059,"ĠGo":4060,"Ġcreative":4061,"Ġprovides":4062,"Ġindustry":4063,"Jo":4064,"Ġholes":4065,"ustr":4066,"Ġfinding":4067,"azz":4068,"oom":4069,"icip":4070,"ĠDay":4071,"ushed":4072,"Ġlover":4073,"ĠPart":4074,"Ġmerely":4075,"osh":4076,"Ġadults":4077,"ĠRussian":4078,"Ġbi":4079,"Ġhig":4080,"ilities":4081,"ĠMexic":4082,"pected":4083,"Ġfunniest":4084,"ech":4085,"life":4086,"ĠMore":4087,"Ġnobody":4088,"Ġwilling":4089,"Ġdisappe":4090,"Ġmelodram":4091,"verse":4092,"Ġconvers":4093,"Ġforgotten":4094,"To":4095,"Ġdubb":4096,"raid":4097,"Ġthank":4098,"Ġhighlight":4099,"ique":4100,"Ġfiction":4101,"Ġnons":4102,"ĠJon":4103,"Ġimagination":4104,"ĠSteven":4105,"Ġrented":4106,"Ġmarket":4107,"Ġeverybody":4108,"Ġgorgeous":4109,"cra":4110,"Ġstuck":4111,"ĠBet":4112,"abb":4113,"Ġahead":4114,"Ġoh":4115,"Ġonto":4116,"Ġ12":4117,"Ġimpact":4118,"Ġexplan":4119,"Ġstandards":4120,"Ġhonestly":4121,"Ġwide":4122,"itz":4123,"lled":4124,"Ġfollowed":4125,"Ġbecoming":4126,"Ġreminded":4127,"ĠCanad":4128,"Ġattractive":4129,"Ġmart":4130,"Ġpen":4131,"soever":4132,"----":4133,"ĠMany":4134,"orter":4135,"Ġeight":4136,"Ġunus":4137,"Ġzombies":4138,"elebr":4139,"lock":4140,"Ġcontem":4141,"Ġfalling":4142,"Ġcollection":4143,"Ġmat":4144,"Ġfellow":4145,"Ġmediocre":4146,"Ġstation":4147,"pper":4148,"Ġround":4149,"Ġclub":4150,"Ġlad":4151,"ĠBond":4152,"ĠWalk":4153,"aud":4154,"Ġrac":4155,"Ġready":4156,"Ġboard":4157,"Ġoccasion":4158,"Americ":4159,"itor":4160,"Ġfort":4161,"Ġpersonality":4162,"ĠDespite":4163,"Ġdouble":4164,"Ġlatter":4165,"stein":4166,".,":4167,"IC":4168,"Ġeat":4169,"ĠSpe":4170,"abl":4171,"AY":4172,"anic":4173,"illed":4174,"Ġarea":4175,"ĠRog":4176,"Ġwhatsoever":4177,"entional":4178,"ĠAmericans":4179,"Ġdetective":4180,"Ġham":4181,"asure":4182,"Ġactions":4183,"Ġunne":4184,"Ġpicked":4185,"mes":4186,"Ġaside":4187,"Ġsuicide":4188,"Ġprin":4189,"Ġcops":4190,"Ġanimals":4191,"xual":4192,"Ġaim":4193,"Ġgri":4194,"ĠBilly":4195,"Ġkidn":4196,"Ġhelped":4197,"she":4198,"Ġled":4199,"ĠJackson":4200,"ĠPhil":4201,"AC":4202,"oted":4203,"see":4204,"iday":4205,"Ġtwice":4206,"ĠShow":4207,"Ġstreng":4208,"ishes":4209,"Ġunderst":4210,"Ġtragic":4211,"Ġphone":4212,"Ġhide":4213,"Ġreach":4214,"aded":4215,"Ġblind":4216,"ĠYoung":4217,"Ġputting":4218,"ĠRobin":4219,"ĠStep":4220,"ĠChristopher":4221,"Ġunreal":4222,"Be":4223,"athetic":4224,"ĠWil":4225,"ĠDick":4226,"ĠEr":4227,"Ġmember":4228,"ĠSuper":4229,"Bl":4230,"Ġden":4231,"ĠNaz":4232,"eper":4233,"mark":4234,"Ġbase":4235,"Ġpair":4236,"Ġ/>-":4237,"ĠTe":4238,"Ġworthy":4239,"Ġpossess":4240,"ĠCarl":4241,"Ġscientist":4242,"Ġachieve":4243,"hol":4244,"Ġproves":4245,"Ġmoved":4246,"Ġshouldn":4247,"Ġencoun":4248,"aton":4249,"odies":4250,"Ġthoroughly":4251,"rough":4252,"Ġgrow":4253,"Ġchildhood":4254,"ffe":4255,"father":4256,"gar":4257,"Ġtragedy":4258,"ĠShakespeare":4259,"Ġcrowd":4260,"Ġwise":4261,"Ġbottom":4262,"ĠBoth":4263,"ĠMs":4264,"Ġjustice":4265,"ĠStory":4266,"Ġprofessional":4267,"ium":4268,"ios":4269,"ĠSl":4270,"Ġsumm":4271,"ĠON":4272,"Ġfriendship":4273,"Ġactresses":4274,"ĠFord":4275,"Ġquiet":4276,"azy":4277,"Ġseconds":4278,"Ġbene":4279,"Ġweap":4280,"ules":4281,"LY":4282,"herent":4283,"Ġcelebr":4284,"Ġhook":4285,"Ġplane":4286,"Ġrated":4287,"Ġformula":4288,".'":4289,"film":4290,"Ġpra":4291,"Ġbegan":4292,"ĠGreen":4293,"Ġunw":4294,"ĠMcC":4295,"ĠWestern":4296,"inese":4297,"Ġdrag":4298,"Ġasked":4299,"requ":4300,"illa":4301,"Ġnoir":4302,"Ġturning":4303,"Ġcontinue":4304,"Ġslap":4305,"Ġcommentary":4306,"ĠMus":4307,"Ġprovide":4308,"Ġsour":4309,"ĠLyn":4310,"Ġshocking":4311,"Ġnasty":4312,"ĠBas":4313,"Ġlose":4314,"Ġmurders":4315,"Ġwearing":4316,"Ġsuperior":4317,"Ġsupposedly":4318,"Ġdescribe":4319,"mar":4320,"Ġchannel":4321,"mi":4322,"agger":4323,"arded":4324,"ifer":4325,"Ġtrust":4326,"Ġrealized":4327,"Ġbits":4328,"Ġangry":4329,"Ġopera":4330,"Ġafraid":4331,"TV":4332,"oring":4333,"arp":4334,"ĠTre":4335,"ĠLau":4336,"Ġknock":4337,"Ġcentral":4338,"Ġwooden":4339,"port":4340,"Ġbright":4341,"ament":4342,"Ġphysical":4343,"Ġclothes":4344,"anish":4345,"Ġheld":4346,"oore":4347,"Ġbroad":4348,")<":4349,"Now":4350,"Ġdepart":4351,"ĠOnce":4352,"Ġapartment":4353,"kes":4354,"ĠLo":4355,"year":4356,"eal":4357,"oos":4358,"agers":4359,"Ġrepeated":4360,"ĠCGI":4361,"Ġinsight":4362,"Ġartistic":4363,"Ġsurely":4364,"ĠEverything":4365,"icious":4366,"ĠMag":4367,"Ġhorse":4368,"Ġwarm":4369,"Ġintroduced":4370,"Ġstruggle":4371,"Un":4372,"Ġtar":4373,"ators":4374,"ĠTheir":4375,"resses":4376,"ovies":4377,"Ġmemory":4378,"Ġlisten":4379,"miss":4380,"Ġdying":4381,"Ġwanting":4382,"Ġplanet":4383,"erk":4384,"alled":4385,"Ġagent":4386,"Ġfavourite":4387,"ĠSar":4388,"Ġunexpected":4389,"Ġenergy":4390,"Ġsell":4391,"roc":4392,"ĠBo":4393,"Ġcompare":4394,"Ġredeeming":4395,"At":4396,"Ġthanks":4397,"ĠVH":4398,"Ġepic":4399,"Ġpleasure":4400,"aire":4401,"ĠDen":4402,"Ġnecessary":4403,"Ġperform":4404,"Ġaccom":4405,"ĠCam":4406,"olds":4407,"apped":4408,"Ġinspired":4409,"ja":4410,"rors":4411,"Ġthin":4412,"ĠToo":4413,"Ġsadly":4414,"Ġdamn":4415,"De":4416,"Ġlies":4417,"Ġemploy":4418,"ĠAnyway":4419,"ano":4420,"Ġyouth":4421,"Ġtorture":4422,"Ġintriguing":4423,"zen":4424,"Ġcal":4425,"ĠSad":4426,"Ġnumbers":4427,"gent":4428,"kward":4429,"otes":4430,"ading":4431,"ĠAc":4432,"Ġugly":4433,"Ġscare":4434,"ousy":4435,"Ġloving":4436,"Ġprefer":4437,"Ġblond":4438,"Ġcoun":4439,"ropriate":4440,"Ġthus":4441,"ĠJes":4442,"Ġ1950":4443,"Ġhat":4444,"ĠBarb":4445,"Ġcreature":4446,"Ġdeserve":4447,"Ġresemb":4448,"Ġbrutal":4449,"Ġasks":4450,"Ġexplos":4451,"ĠLittle":4452,"Ġrelative":4453,"Ġteenage":4454,"ĠRyan":4455,"Ġpath":4456,"ĠDid":4457,"Ġbrothers":4458,"ĠclichÃ©s":4459,"Ġaccurate":4460,"lla":4461,"ĠJr":4462,"Ġaware":4463,"Ġbelong":4464,"Ġ?":4465,"Ġrelie":4466,"ĠGirl":4467,"Ġanywhere":4468,"asts":4469,"Ġintelligence":4470,"ĠBatman":4471,"Ġsepar":4472,"Ġchick":4473,"Ġrape":4474,"Ġaccount":4475,"aly":4476,"tered":4477,"Ġtears":4478,"Ġdeserved":4479,"Ġcomedic":4480,"Ġsoldier":4481,"ĠWilliams":4482,"iac":4483,"ancy":4484,"Ġder":4485,"entious":4486,"ĠSy":4487,"Ġrubb":4488,"Ġwatchable":4489,"ddie":4490,"Ġvision":4491,"Ġpriest":4492,"Ġtend":4493,"Ġholds":4494,"Ġdeeply":4495,"afe":4496,"Ġsurprising":4497,"Ġfilmmaker":4498,"Some":4499,"ĠEv":4500,"Ġawkward":4501,"Ġpersonally":4502,"undred":4503,"Ġreligious":4504,"ras":4505,"Ġmount":4506,"ĠIN":4507,"ĠHel":4508,"ĠDar":4509,"ĠThomas":4510,"Ġunknown":4511,"Ġknowledge":4512,"ĠHenry":4513,"vate":4514,"Ġsucks":4515,"Ġdeb":4516,"Ġ13":4517,"iance":4518,"Ġlets":4519,"Ġborn":4520,"Ġ1970":4521,"uct":4522,"Ġfood":4523,"Ġincludes":4524,"ĠWal":4525,"ĠJason":4526,"Ġelect":4527,"Ġreact":4528,"abr":4529,"omen":4530,"ĠPal":4531,"ĠChinese":4532,"ĠSpace":4533,"Any":4534,"Ġloss":4535,"ilst":4536,"Ġstock":4537,"ĠMen":4538,"ĠJud":4539,"Ġunderstanding":4540,"Ġhotel":4541,"Ġtour":4542,"Ġdeg":4543,"Ġblock":4544,"bered":4545,"Ġcraft":4546,"AM":4547,"leep":4548,"Ġsurreal":4549,"SE":4550,"ville":4551,"stal":4552,"Ġwonderfully":4553,"Ġexplanation":4554,"Ġsin":4555,"ĠMoore":4556,"Ġsuck":4557,"Ġempt":4558,"rick":4559,"Ġgames":4560,"Ġblame":4561,"Ġmartial":4562,"Ġver":4563,"ording":4564,"UT":4565,"Ġted":4566,"Ġmine":4567,"Ġbal":4568,"Ġhint":4569,"Ġmagnific":4570,"yr":4571,"Ġmut":4572,"Ġlay":4573,"cture":4574,"Ġnoticed":4575,"ĠDam":4576,"ĠHarris":4577,"Ġradio":4578,"ugg":4579,"Ġtur":4580,"Ġbank":4581,"pective":4582,"Ġreminds":4583,"hero":4584,"Ġbirth":4585,"Ġthous":4586,"Ġpacing":4587,"Ġris":4588,"ĠJerry":4589,"Well":4590,"ean":4591,"ashed":4592,"ademy":4593,"ĠAv":4594,"aturally":4595,"Ġlimited":4596,"Ġremarkable":4597,"Ġgags":4598,"Ġtarget":4599,"do":4600,"ateg":4601,"Ġunusual":4602,"ĠRus":4603,"teen":4604,"Ġissue":4605,"hand":4606,"Ġcow":4607,"especially":4608,"oses":4609,"Ġindependent":4610,"enge":4611,"Ġanybody":4612,"Ġspeaking":4613,"Ġcalls":4614,"Ġlocations":4615,"Ġmotiv":4616,"Ġsignific":4617,"irgin":4618,"ĠLife":4619,"uman":4620,"aylor":4621,"Ġassist":4622,"Ġcaptured":4623,"Ġopposite":4624,"ĠVHS":4625,"ET":4626,"hered":4627,"ilos":4628,"Ġstink":4629,"Ġscared":4630,"Ġbland":4631,"Ġenth":4632,"ĠBrother":4633,"Ġmemories":4634,"ĠStephen":4635,"Ġaccompl":4636,"Ġmild":4637,"iful":4638,"ĠLaw":4639,"ivity":4640,"Ġreflect":4641,"Ġlearned":4642,"ĠKevin":4643,"Ġreturns":4644,"atory":4645,"Ġhurt":4646,"adow":4647,"ĠRoy":4648,"Ġrarely":4649,"ĠAllen":4650,"Ġhundred":4651,"plot":4652,"Ġtwenty":4653,"Ġbur":4654,"Ġmanage":4655,"bian":4656,"uh":4657,"ĠRo":4658,"soci":4659,"Ġbuff":4660,"ĠHoward":4661,"Ġheads":4662,"ominated":4663,"Ġtem":4664,"Ġla":4665,"ĠSus":4666,"ĠHell":4667,"Ġleader":4668,"Ġmonths":4669,"Ġnicely":4670,"Ġprotect":4671,"Ġengaging":4672,"Ġdangerous":4673,"Ġunnecessary":4674,"Ġmob":4675,"Ġsty":4676,"Ġdebut":4677,"Ġbelief":4678,"Ġ1980":4679,"nie":4680,"lle":4681,"ĠIm":4682,"Ġsoap":4683,"Ġproceed":4684,"Ġinterpret":4685,"âĢ":4686,"plic":4687,"Ġresponsible":4688,"Ġfield":4689,"Ġhated":4690,"ipul":4691,"Ġinsane":4692,"ĠDanny":4693,"American":4694,"yer":4695,"ĠApp":4696,"ĠSil":4697,"Ġran":4698,"Ġcreating":4699,":<":4700,"bad":4701,"Ġtight":4702,"reck":4703,"eman":4704,"Ġarmy":4705,"Ġregret":4706,"spe":4707,"hern":4708,"urs":4709,"Ġmental":4710,"ĠTex":4711,"irk":4712,"ĠMike":4713,"ruction":4714,"Ġminim":4715,"there":4716,"Ġcommunity":4717,"Ġflying":4718,"ĠSince":4719,"ĠMaster":4720,"ĠBrown":4721,"Ġexplained":4722,"Ġvisit":4723,"Ġtreated":4724,"Ġreferences":4725,"Ġneighbor":4726,"Oh":4727,"star":4728,"ĠWin":4729,"abor":4730,"Ġplots":4731,"ewis":4732,"yes":4733,"ĠTer":4734,"Ġremain":4735,"Ġcomparison":4736,"esh":4737,"stick":4738,"ĠAp":4739,"Ġplayer":4740,"ĠAnne":4741,"Ġtechnical":4742,"Ġgrad":4743,"Ġincre":4744,"Ġfinished":4745,"Ġarts":4746,"Ġskin":4747,"Ġsubtit":4748,"Ġsac":4749,"unter":4750,"ĠLes":4751,"osen":4752,"Ġefforts":4753,"Ġbehavior":4754,"cise":4755,"stit":4756,"Ġblue":4757,"Ġhumanity":4758,"Ġcontrast":4759,"oons":4760,"ĠSant":4761,"Ġframe":4762,"cient":4763,"Ġfloor":4764,"Ġopt":4765,"Ġhits":4766,"Ġplayers":4767,"Ġsmile":4768,"ression":4769,"ĠJohnny":4770,"Ġtransl":4771,"John":4772,"Ġcivil":4773,"ĠHall":4774,"ĠDO":4775,"Ġaband":4776,"ĠLind":4777,"Ġhadn":4778,"ache":4779,"Ġdeterm":4780,"Ġlacking":4781,"Ġcard":4782,"ĠTaylor":4783,"ĠHaving":4784,"terest":4785,"Ġboat":4786,"200":4787,"Ġna":4788,"ĠKid":4789,"ennifer":4790,"Ġrubbish":4791,"Ġthats":4792,"ĠWhite":4793,"Ġgotten":4794,"Ġmurdered":4795,"Ġfights":4796,"Ġsummer":4797,"rous":4798,"Ġfreak":4799,"Ġboo":4800,"Ġhyp":4801,"entle":4802,"ĠHit":4803,"Ġinstance":4804,"Ġrepresent":4805,"vy":4806,"vit":4807,"ooper":4808,"Ġconstant":4809,"Ġforeign":4810,"Ġvehic":4811,"Ġsurvive":4812,"Ġmachine":4813,"No":4814,"ication":4815,"ĠPlease":4816,"osaur":4817,"Ġprove":4818,"icked":4819,"ĠHorror":4820,"Ġwond":4821,"Ġpet":4822,"Ġstret":4823,"Ġlovers":4824,"Ġrecall":4825,".\"<":4826,"Ġuncon":4827,"Ġhidden":4828,"ĠSin":4829,"ĠJoan":4830,"Ġtheatre":4831,"Ġcircum":4832,"Ġdu":4833,"ĠPres":4834,"ĠOl":4835,"pless":4836,"ensional":4837,"Ġbigger":4838,"Ġcapture":4839,"However":4840,"don":4841,"natural":4842,"urse":4843,"Ġdesp":4844,"Ġgrat":4845,"gn":4846,"Ġhumans":4847,"Ġincluded":4848,"Ġcriminal":4849,"tes":4850,"ĠREA":4851,"ogy":4852,"aren":4853,"ĠAlan":4854,"ĠBlood":4855,"ĠArthur":4856,"Ġdriving":4857,"ĠEngland":4858,"Ġprotagonist":4859,"rays":4860,"Ġcars":4861,"Ġnet":4862,"ĠWH":4863,"Ġjunk":4864,"Ġexperien":4865,"ĠDavis":4866,"etic":4867,"ember":4868,"Ġaward":4869,"Ġmixed":4870,"Ġner":4871,"ĠBrian":4872,"Ġdeals":4873,"Ġcontext":4874,"Ġkeeping":4875,"Ġmission":4876,"Ġnumerous":4877,"Ġtape":4878,"ĠMax":4879,"Ġvs":4880,"abe":4881,"Ġpartner":4882,"ugs":4883,"Ġhopes":4884,"mare":4885,"ounds":4886,"Ġfinest":4887,"Ġbloody":4888,"Ġbelow":4889,"Ġdesperate":4890,"director":4891,"although":4892,"ĠEddie":4893,"Ġhumorous":4894,"Ġvillains":4895,"looking":4896,"ser":4897,"they":4898,"Ġconfront":4899,"vant":4900,"Ġban":4901,"Ġreaction":4902,"Ġtherefore":4903,"Ġtext":4904,"Ġspeech":4905,"ails":4906,"Ġcrappy":4907,"Ġintellect":4908,"Ġirritating":4909,");":4910,"II":4911,"ĠCass":4912,"Ġring":4913,"Ġ11":4914,"Ġrelate":4915,"Ġeduc":4916,"Ġexperiment":4917,"viron":4918,"Sc":4919,"ÂĹ":4920,"atives":4921,"ario":4922,"thony":4923,"ĠRom":4924,"Ġspoof":4925,"anity":4926,"icate":4927,"ĠNorth":4928,"Ġincomp":4929,"Ġresol":4930,"Ġcateg":4931,"ama":4932,"ushing":4933,"Ġunint":4934,"elle":4935,"Ġheroine":4936,"Ġdealing":4937,"Ġrevealed":4938,"Ġrealism":4939,"Ġfinale":4940,"Ġresults":4941,"Ġadvice":4942,"Ġfrequ":4943,"Ġles":4944,"unted":4945,"Ġarm":4946,"Ġconcerned":4947,"rs":4948,"Ġpupp":4949,"ĠWas":4950,"Ġgrowing":4951,"screen":4952,"ĠEveryone":4953,"Ġofficer":4954,"ĠDor":4955,"ĠRon":4956,"Ġpulled":4957,"__":4958,"ores":4959,"uk":4960,"Ġwitty":4961,"isc":4962,"Ġchurch":4963,"Ġwinning":4964,"Ġpilot":4965,"Ġnonsense":4966,"Ġfate":4967,"irm":4968,"ĠCapt":4969,"ĠDem":4970,"Ġwindow":4971,"Ġcircumst":4972,"ĠThose":4973,"Ġskills":4974,"Ġguns":4975,"POILERS":4976,"rical":4977,"sen":4978,"Ġshop":4979,"Ġowner":4980,"ĠDeath":4981,"Ġphilos":4982,"Ġcuts":4983,"fortable":4984,"apl":4985,"Ġgoof":4986,"ques":4987,"umps":4988,"Ġterribly":4989,"Ġtalents":4990,"ued":4991,"Ġing":4992,"Ġearn":4993,"ante":4994,"ĠQue":4995,"Ġstereotypes":4996,"ĠLouis":4997,"rad":4998,"Ġbot":4999,"Ġsteal":5000,"ĠWayne":5001,"Ġordinary":5002,"sell":5003,"Ġtroub":5004,"Ġassass":5005,"porary":5006,"ĠLynch":5007,"Ġsed":5008,"Ġgru":5009,"alling":5010,"ĠSn":5011,"urity":5012,"unn":5013,"ĠOut":5014,"Ġsheer":5015,"Ġprint":5016,"Ġdiscovered":5017,"Ġsentiment":5018,"zan":5019,"Ġsafe":5020,"Ġtoward":5021,"Ġteach":5022,"ĠAndrew":5023,"Ġconsist":5024,"anned":5025,"ĠSpanish":5026,"Ġanimal":5027,"pir":5028,"Ġfif":5029,"Ġforces":5030,"ĠCent":5031,"ĠWat":5032,"Ġenviron":5033,"ups":5034,"rifying":5035,"OL":5036,"Rob":5037,"ashes":5038,"ulf":5039,"ĠFrance":5040,"Ġregular":5041,"???":5042,"Ġmonsters":5043,"Ġexpert":5044,"Ġwoods":5045,"Ġreceived":5046,"worth":5047,"Ġcable":5048,"edding":5049,"Ġlat":5050,"Ġmanipul":5051,"Ġstarting":5052,"Ġpretentious":5053,"Ġremembered":5054,"While":5055,"ĠHay":5056,"Ġens":5057,"Ġstudy":5058,"Ġpu":5059,"Ġchore":5060,"Ġsomebody":5061,"ruct":5062,"ĠSean":5063,"Ġcontinues":5064,"Ġpsychological":5065,"Ġgenuinely":5066,"Re":5067,"vest":5068,"ĠJose":5069,"ĠEric":5070,"Ġteenagers":5071,"Ġlevels":5072,"Ġprinci":5073,"core":5074,"Ġbath":5075,"Ġintent":5076,"Ġarch":5077,"Ġmini":5078,"Ġattitude":5079,"arently":5080,"ennis":5081,"Ġmedia":5082,"ĠGuy":5083,"Ġcruel":5084,"ban":5085,"Ġfle":5086,"Ġfra":5087,"Ġheroes":5088,"ĠMrs":5089,"reedom":5090,"ĠAfrican":5091,"ĠBarry":5092,"They":5093,"ĠVal":5094,"ĠColumb":5095,"Ġempty":5096,"Ġpark":5097,"Ġpaper":5098,"ĠChan":5099,"Ġcorrupt":5100,"Ġmiser":5101,"Ġbreaks":5102,"ĠEuropean":5103,"ILL":5104,"bell":5105,"Ġkiss":5106,"abeth":5107,"Ġdisp":5108,"Ġfailure":5109,"Ġunfunny":5110,"ĠTexas":5111,"nam":5112,"Ġgreen":5113,"Ġassoci":5114,"ĠHaw":5115,"ĠDel":5116,"ĠNick":5117,"Ġkinda":5118,"Ġmorning":5119,"Ġmodel":5120,"ilies":5121,"Ġcharism":5122,"Ġdisplay":5123,"Ġsaved":5124,"glas":5125,"ads":5126,"Ġwealth":5127,"Ġorgan":5128,"ĠOkay":5129,"Ġopens":5130,"Ġvisuals":5131,"Ġstrength":5132,"50":5133,"iens":5134,"kins":5135,"tw":5136,"Ġic":5137,"Ġsite":5138,"idge":5139,"ribut":5140,"ĠMont":5141,"ĠCarr":5142,"ivered":5143,"ĠEVER":5144,"Ġspeed":5145,"Ġtrib":5146,"Ġreviewers":5147,"Ġsinger":5148,"Ġspectacular":5149,"aa":5150,"Ġfeet":5151,"Ġdesire":5152,"athan":5153,"Ġcameo":5154,"Ġdistract":5155,"Ġexistence":5156,"Ġconnection":5157,"iy":5158,"point":5159,"Ġfund":5160,"alloween":5161,"Ġperspective":5162,"Ġchalleng":5163,"Ġrelief":5164,"bur":5165,"some":5166,"Ġcant":5167,"anny":5168,"ulous":5169,"Ġsucked":5170,"Ġtruck":5171,"........":5172,"Ġedited":5173,"hearted":5174,"Ġoccasionally":5175,"After":5176,"top":5177,"acc":5178,"Ġimagin":5179,"Ġsatire":5180,"wolf":5181,"Ġgory":5182,"agal":5183,"Ġgeneration":5184,"Ġgrace":5185,"With":5186,"sec":5187,"acting":5188,"ĠLi":5189,"Ġrange":5190,"Ġunable":5191,"luding":5192,"Ġdescribed":5193,"Ġmagnificent":5194,"iser":5195,"Ġinh":5196,"Ġseat":5197,"Ġju":5198,"Ġfrank":5199,"ĠLewis":5200,"Ġoverly":5201,"ĠIsland":5202,"Ġveter":5203,"hent":5204,"isa":5205,"Ġpit":5206,"iling":5207,"iro":5208,"ĠViet":5209,"Ġdecision":5210,"Ġevidence":5211,"Ġmarry":5212,"Ġcontrived":5213,"ube":5214,"orious":5215,"Ġhall":5216,"Ġdecade":5217,"Ġlesson":5218,"Ġdiscovers":5219,"ae":5220,"ault":5221,"Ġdated":5222,"ether":5223,"aming":5224,"Ġsole":5225,"ĠThank":5226,"ĠKenn":5227,"Ġunrealistic":5228,"Ġvote":5229,"Ġdreadful":5230,"Ġtack":5231,"ĠJan":5232,"away":5233,"Ġhigher":5234,"uls":5235,"Ġwarning":5236,"Ġparody":5237,"Ġconnect":5238,"Ġpress":5239,"Ġgrew":5240,"Ġscrew":5241,"ometimes":5242,"Ġgrown":5243,"Ġinvolves":5244,"ĠAustralian":5245,"RA":5246,"fit":5247,"Ġfal":5248,"ching":5249,"ĠHart":5250,"Ġshallow":5251,"ĠWild":5252,"anged":5253,"ĠAnthony":5254,"ĠBefore":5255,"Ġsyn":5256,"Ġcombination":5257,"Ġcash":5258,"aybe":5259,"Ġoriginally":5260,"Ġresearch":5261,"Ġsake":5262,"Ġfly":5263,"ĠIT":5264,"ĠEs":5265,"Ġobl":5266,"Ġdelivered":5267,"Ġflashbacks":5268,"Ġsun":5269,"omed":5270,"Ġgonna":5271,"Ġaltern":5272,"Ġuncom":5273,"ĠDouglas":5274,"aplin":5275,"Ġwhilst":5276,"ĠBBC":5277,"ĠNic":5278,"Ġobsc":5279,"ĠAsian":5280,"Ġtypes":5281,"nox":5282,"lear":5283,"Ġbear":5284,"Ġchoose":5285,"ĠVer":5286,"Ġyeah":5287,"finitely":5288,"Ġcreates":5289,"Ġextraord":5290,"pent":5291,"Ġ)":5292,"arc":5293,"asm":5294,"ĠLord":5295,"Ġlogic":5296,"ĠWhich":5297,"Ġmarvel":5298,"Ġprovided":5299,"Ġsnow":5300,"UN":5301,"ym":5302,"Ġdi":5303,"outs":5304,"Ġvac":5305,"ĠNO":5306,"Ġteenager":5307,"!).":5308,"Ġcyn":5309,"Ġnin":5310,"ĠLook":5311,"Ġpeace":5312,"ordon":5313,"Ġfeaturing":5314,"Ġcares":5315,"Ġgangster":5316,"Ġdelightful":5317,"ĠSecond":5318,"GE":5319,"atra":5320,"Ġdressed":5321,"rix":5322,"ĠAndy":5323,"Ġtheaters":5324,"ĠAgain":5325,"Ġtor":5326,"ĠMal":5327,"Ġvul":5328,"ĠGary":5329,"Ġproved":5330,"Ġbuilt":5331,"Ġfootball":5332,"Also":5333,"ĠJulie":5334,"Ġjudge":5335,"Ġdry":5336,"Ġadvert":5337,"theless":5338,"Ġfamilies":5339,"Ġasking":5340,"ĠMorgan":5341,"ĠInt":5342,"ilty":5343,"Ġsend":5344,"Ġlaughter":5345,"Ġassume":5346,"Ġsword":5347,"ĠKeaton":5348,"Ġbroken":5349,"Ġloses":5350,"Ġcapable":5351,"Ġamateurish":5352,"ĠFranc":5353,"tle":5354,"Ġpunch":5355,"Ġsea":5356,"ĠFar":5357,"Ġbelieves":5358,"Ġcorny":5359,"Ġessentially":5360,"mo":5361,"uther":5362,"Ġnecess":5363,"ĠEll":5364,"osexual":5365,"Ġunderrated":5366,"oken":5367,"ĠTHIS":5368,"Ġrefres":5369,"Ġsympathetic":5370,"Ġgraphic":5371,"hentic":5372,"law":5373,"ĠMic":5374,"Ġfrustr":5375,"Ġallows":5376,"ights":5377,"Ġskill":5378,"Ġmeeting":5379,"Ġtraditional":5380,"mble":5381,"Ġsal":5382,"Ġredu":5383,"ĠLa":5384,"Then":5385,"ĠYOU":5386,"othy":5387,"ĠLeon":5388,"Ġbrilliantly":5389,"ĠJimmy":5390,"Ġemotionally":5391,"Ġgross":5392,"ĠLuc":5393,"Ġcurious":5394,"ĠAcademy":5395,"ĠHitler":5396,"Ġtalks":5397,"IGH":5398,"entionally":5399,"Ġglass":5400,"ĠDaniel":5401,"Ġmajority":5402,"Ġharm":5403,"Ġinex":5404,"Ġemer":5405,"owell":5406,"aret":5407,"Ġcreatures":5408,"First":5409,"iforn":5410,"ĠLast":5411,"Ġconsequ":5412,"Ġvillage":5413,"Ġtreatment":5414,"Ġenvironment":5415,"RI":5416,"ients":5417,"Ġda":5418,"ĠMer":5419,"Ġking":5420,"usi":5421,"ĠJess":5422,"ĠJennifer":5423,"Ġexecuted":5424,"Ġultimate":5425,"ums":5426,"yal":5427,"Ġbat":5428,"Ġeating":5429,"ulp":5430,"Ġscar":5431,"usive":5432,"ĠRod":5433,"ĠRose":5434,"ĠLady":5435,"Ġthoughts":5436,"Ġportrays":5437,"Ġinspir":5438,"Ġinept":5439,"Ġrescue":5440,"Ar":5441,"ba":5442,"lly":5443,"Ġpowers":5444,"ĠWars":5445,"Ġvide":5446,"ummy":5447,"formed":5448,"ĠAlbert":5449,"Ġsitcom":5450,"LLY":5451,"Ġhandsome":5452,"Ġpropag":5453,"Ġexpression":5454,"uitous":5455,"Ġtedious":5456,"Ġnaive":5457,"ls":5458,"rate":5459,"tain":5460,"ĠCamp":5461,"angers":5462,"Ġsteals":5463,"Ġembarrassing":5464,"gen":5465,"Ġhur":5466,"Ġseven":5467,"Ġpurch":5468,"Ġcolour":5469,"Ġtick":5470,"Ġbodies":5471,"ĠMiche":5472,"Ġendless":5473,"Ġcourt":5474,"Ġcircumstances":5475,"Sp":5476,"Ġharsh":5477,"ĠCle":5478,"Ġguest":5479,"Ġrevolution":5480,"Ġfict":5481,"Ġbag":5482,"ĠColl":5483,"ĠChaplin":5484,"Ġcompan":5485,"Ġcrack":5486,"Ġcontrovers":5487,"Ġcaused":5488,"Ġscreaming":5489,"Ġtable":5490,"Ġgas":5491,"ĠTime":5492,"Ġaccomp":5493,"ĠBroad":5494,"ule":5495,"stream":5496,"ĠSund":5497,"amily":5498,"oyd":5499,"Ġreviewer":5500,"Ġinvolve":5501,"Ġexcited":5502,"Ġpromise":5503,"Ġvol":5504,"ĠPac":5505,"Ġviewed":5506,"Ġestabl":5507,"Ġdisgusting":5508,"ĠMil":5509,"Ġwalked":5510,"Ġcounter":5511,"Â´":5512,"ichol":5513,"ĠAnderson":5514,"Ġstreets":5515,"Ġpal":5516,"arian":5517,"imate":5518,"Ġgrade":5519,"ucky":5520,"Ġpassed":5521,"Ġmurdere":5522,"Ġrefreshing":5523,"made":5524,"hem":5525,"Ġfreedom":5526,"Ġvan":5527,"Ġvoices":5528,"Ġages":5529,"izabeth":5530,"Ġcompos":5531,"Ġentertained":5532,"Ġsequels":5533,"aturday":5534,"ĠGermany":5535,"ĠTrek":5536,"Ġinvent":5537,"Ġstanding":5538,"Ġnormally":5539,"Ġidentity":5540,"ifornia":5541,"han":5542,"ĠTed":5543,"ĠSH":5544,"ĠKu":5545,"Ġrental":5546,"Ġbringing":5547,"Ġlousy":5548,"lder":5549,"ĠMatt":5550,"Ġsharp":5551,"Ġcosts":5552,"Ġroutine":5553,"itiz":5554,"ĠWow":5555,"Ġconvey":5556,"tended":5557,"Ġproud":5558,"Ġladies":5559,"done":5560,"phy":5561,"Ġlone":5562,"ulation":5563,"ĠDian":5564,"Ġhorribly":5565,"Ġproduce":5566,"Ġappl":5567,"class":5568,"Ġauthentic":5569,"Ġstopped":5570,"Ġfare":5571,"Ġforth":5572,"ĠGordon":5573,"Ġspin":5574,"Ġstrongly":5575,"She":5576,"za":5577,"inis":5578,"Ġrend":5579,"ĠGene":5580,"Ġconce":5581,"Ġende":5582,"Ġtechnology":5583,"Ġpleasant":5584,"ausible":5585,"dom":5586,"nal":5587,"Ġfame":5588,"Ġsoph":5589,"Ġplans":5590,"ashington":5591,"Ġweeks":5592,"Ġvehicle":5593,"IR":5594,"fl":5595,"uns":5596,"ĠPre":5597,"umm":5598,"ummer":5599,"urns":5600,"viously":5601,"ethod":5602,"Ġsuffering":5603,"Ġdubbed":5604,"Ġcontemporary":5605,"ĠWilson":5606,"ĠJesus":5607,"tr":5608,"Ġsaving":5609,"roll":5610,"ura":5611,"ĠCast":5612,"ĠKong":5613,"ogether":5614,"Ġmatters":5615,"Ġwalks":5616,"Ġexperienced":5617,"Ġbond":5618,"oting":5619,"ĠBE":5620,"ĠRoman":5621,"atherine":5622,"Ġpainfully":5623,"Ġzero":5624,"ungle":5625,"Ġlearns":5626,"Ġsource":5627,"Ġsubtitles":5628,"Ġfits":5629,"ola":5630,"ĠLarry":5631,"Ġfacts":5632,"Ġshocked":5633,"Ġdollars":5634,"Ġcriticism":5635,"ĠStreet":5636,"Ġqualities":5637,"Of":5638,"mother":5639,"Ġbre":5640,"enstein":5641,"Ġhey":5642,"ĠFestival":5643,"Ġversions":5644,"Ġdepicted":5645,"icit":5646,"ĠCinem":5647,"ĠPict":5648,"Ġwhenever":5649,"ĠSeagal":5650,"Ġportraying":5651,"Ġhyster":5652,"Ġgratuitous":5653,"ixt":5654,"whel":5655,"ĠAre":5656,"Ġancient":5657,"Ġdepressing":5658,"ĠUnivers":5659,"Ġexcit":5660,"Ġruined":5661,"ait":5662,"telling":5663,"upt":5664,"ĠGener":5665,"Ġterm":5666,"ĠBrad":5667,"Ġreligion":5668,"Ġsatisfying":5669,"taking":5670,"ĠMoon":5671,"ĠCount":5672,"Ġblow":5673,"Ġspends":5674,"ĠPlus":5675,"ij":5676,"produ":5677,"ĠCat":5678,"orted":5679,"reek":5680,"Ġclassics":5681,"cohol":5682,"Ġrefer":5683,"Ġsubstance":5684,"Why":5685,"Ġcas":5686,"onel":5687,"ĠBor":5688,"ynam":5689,"Ġcenter":5690,"Ġprior":5691,"Ġcartoons":5692,"Ġpan":5693,"Ġasleep":5694,"ĠWashington":5695,"Ġflesh":5696,"Ġideal":5697,"ĠReally":5698,"Ġlargely":5699,"Ġlosing":5700,"\"),":5701,"Even":5702,"ĠAdd":5703,"Ġwel":5704,"Ġunfortun":5705,"avy":5706,"ĠZomb":5707,"Ġdescript":5708,"Ġtwisted":5709,"aura":5710,"ĠComm":5711,"Ġinevit":5712,"Ġsegment":5713,"Ġslapstick":5714,"Ġenthusi":5715,"teresting":5716,"Ġlatest":5717,"inated":5718,"itter":5719,"ĠSk":5720,"ĠFre":5721,"Ġtheatrical":5722,"ĠIrish":5723,"Ġlesbian":5724,"ĠFrancis":5725,"buster":5726,"otion":5727,"Ġchosen":5728,"ĠLam":5729,"Ġclue":5730,"Ġsports":5731,"phas":5732,"Ġangles":5733,"Ġlucky":5734,"Ġencounter":5735,"Ġmask":5736,"Ġlink":5737,"ĠWr":5738,"ĠDog":5739,"orting":5740,"ĠStone":5741,"ĠAnyone":5742,"Ġexploitation":5743,"ĠBarbara":5744,"Fi":5745,"ĠRem":5746,"ĠKim":5747,"Ġexperiences":5748,"ĠJackie":5749,"Ġconvince":5750,"BO":5751,"Ġwitch":5752,"Ġdrop":5753,"Ġlie":5754,"etime":5755,"ĠWhe":5756,"Ġrecognize":5757,"Ġexcitement":5758,"Ġgig":5759,"Ġhen":5760,"Ġteens":5761,"Ġbelieved":5762,"Ġpursu":5763,"ENT":5764,"oir":5765,"umber":5766,"Ġ14":5767,"Ġevening":5768,"Ġpregn":5769,"ĠUp":5770,"Ġappropriate":5771,"Ġspeaks":5772,"ĠBrothers":5773,"Ġpropaganda":5774,"lim":5775,"long":5776,"Ġbatt":5777,"Ġhol":5778,"ĠSat":5779,"ĠUK":5780,"Ġcring":5781,"ĠBeing":5782,"199":5783,"ĠCaptain":5784,"):":5785,"Ġsides":5786,"ston":5787,"Ġhearing":5788,"ĠRun":5789,"Ġprostit":5790,"apes":5791,"Ġvisually":5792,"Ġcommitted":5793,"ĠSimon":5794,"mind":5795,"eness":5796,"Ġrevel":5797,"Ġreject":5798,"kend":5799,"Ġmakeup":5800,"hens":5801,"BI":5802,"ĠSur":5803,"Ġvague":5804,"Ġunfor":5805,"Ġsurface":5806,"Ġfactor":5807,"Ġappealing":5808,"Ġworthwhile":5809,"Ġcaptures":5810,"ĠDoes":5811,"Ġsuffers":5812,"Ġfalse":5813,"ĠLA":5814,"udes":5815,"ĠKill":5816,"ĠVER":5817,"ĠTHAT":5818,"Ġpromising":5819,"ran":5820,"ĠTy":5821,"Ġquir":5822,"Ġholding":5823,"Ġidiot":5824,"Ġvirtually":5825,"oly":5826,"Ġinner":5827,"ĠTO":5828,"add":5829,"ĠSher":5830,"Ġrough":5831,"ĠGet":5832,"udic":5833,"Ġprice":5834,"Ġmovement":5835,",'":5836,"Ġcore":5837,"Ġshut":5838,"ĠLong":5839,"Ġperformed":5840,"Ġreput":5841,"Ġstructure":5842,"mma":5843,"Ġmultiple":5844,"Ġsemi":5845,"Ġrules":5846,"ĠNE":5847,"beat":5848,"Ġaccents":5849,"197":5850,"Ġfeatured":5851,"Ġpractically":5852,"ĠCanadian":5853,"Ġunfortunate":5854,"Pl":5855,"ĠTod":5856,"oooo":5857,"Ġrise":5858,"ĠKore":5859,"ĠStates":5860,"Ġhandled":5861,"ĠJohnson":5862,"Ġcutting":5863,"ĠRussell":5864,"ns":5865,"ilogy":5866,"ĠMir":5867,"ĠMuch":5868,"ighter":5869,"Ġcrash":5870,"ĠAlice":5871,"ĠUnited":5872,"Ġexpos":5873,"Ġinfluence":5874,"UR":5875,"fire":5876,"enny":5877,"Ġpity":5878,"Ġchose":5879,"Ġabuse":5880,"olic":5881,"Ġspoilers":5882,"ĠActually":5883,"Ġ1960":5884,"Ġpraise":5885,"Ġrelatively":5886,"VE":5887,"mond":5888,"erie":5889,"Ġnominated":5890,"Ġhaunting":5891,"Ġincident":5892,"Ġemp":5893,"198":5894,"Ġposition":5895,"cula":5896,"Ġabr":5897,"Ġbound":5898,"Ġlower":5899,"ĠBern":5900,"Ġjail":5901,"opper":5902,"ĠPatrick":5903,"ĠJoseph":5904,"Just":5905,"Ne":5906,"Ste":5907,"raction":5908,"Ġalcohol":5909,"Ġenemy":5910,"ressive":5911,"Ġlandsc":5912,"Ġstatement":5913,"Ġblonde":5914,"Ġbothered":5915,"Ġfrankly":5916,"ĠFinally":5917,"Ġ25":5918,"Ġcommit":5919,"Ġtouches":5920,"Ġvariety":5921,"Ġsuspenseful":5922,"ĠWatching":5923,"ĠMurphy":5924,"ĠHolmes":5925,"ĠJewish":5926,"Ġscale":5927,"ĠRick":5928,"ĠFull":5929,"Ġoutrage":5930,"Ġrot":5931,"Ġspark":5932,"Ġemphas":5933,"ĠclichÃ©d":5934,"Although":5935,"Ġclaims":5936,"Ġdegree":5937,"ĠVietnam":5938,"!),":5939,"outhern":5940,"Ġneat":5941,"Ġoffensive":5942,"Ġrival":5943,"umbling":5944,"Ġfavorites":5945,"ĠEdward":5946,"ĠBrand":5947,"Ġsympathy":5948,"Ġinitial":5949,"ked":5950,"ners":5951,"pet":5952,"Ġfestival":5953,"ĠBog":5954,"ĠCH":5955,"ĠOver":5956,"Ġacqu":5957,"Ġerotic":5958,"Ġconversation":5959,"zo":5960,"ĠSan":5961,"ĠEvil":5962,"Ġarrest":5963,"Ġguilty":5964,"ĠChild":5965,"Ġtraining":5966,"Ġadmire":5967,"including":5968,"oppy":5969,"Ġaccidentally":5970,"Ġunconvin":5971,"Ġtoler":5972,"olen":5973,"ĠKate":5974,"Ġevol":5975,"Ġfigured":5976,"Ġpreviously":5977,"Ġobsessed":5978,"ĠBroadway":5979,"ker":5980,"Ġwrest":5981,"Ġcook":5982,"Ġpoign":5983,"Ġrealizes":5984,"Ġdirectly":5985,"Ġserves":5986,"ĠAfrica":5987,"ĠAnton":5988,"Ġcategory":5989,"ww":5990,"Ġfish":5991,"itious":5992,"lection":5993,"Ġhack":5994,"ĠNichol":5995,"Ġtrick":5996,"Ġdisag":5997,"Ġsupernatural":5998,"Ġsurprises":5999,"Ġdestroyed":6000,"ION":6001,"Ġ#":6002,"Ġgentle":6003,"ĠSal":6004,"Ġwear":6005,"Ġexagger":6006,"ago":6007,"ĠEve":6008,"Ġmyth":6009,"Ġeverywhere":6010,"Ġsorts":6011,"ĠMean":6012,"ship":6013,"Ġmethod":6014,"ari":6015,"ĠSE":6016,"ĠSid":6017,"Ġ16":6018,"Ġspite":6019,"ĠVinc":6020,"aze":6021,"Ġforgettable":6022,"Ġexecution":6023,"Ġmelodrama":6024,"Ġintellectual":6025,"Ġtill":6026,"Ġwedding":6027,"Ġboot":6028,"Ġcab":6029,"eds":6030,"Ġheck":6031,"chan":6032,"Ġsection":6033,"ĠHope":6034,"umph":6035,"Ġcamer":6036,"Ġpresents":6037,"Ġconfess":6038,"ĠElizabeth":6039,"Ġunlikely":6040,"ĠYeah":6041,"Ġgraph":6042,"Ġdemonstr":6043,"Ġextraordinary":6044,"rehens":6045,"Ġwound":6046,"orb":6047,"Ġdirty":6048,"Ġatro":6049,"ĠJac":6050,"assion":6051,"Ġbitter":6052,"ĠRoberts":6053,"Ġcostume":6054,"Ġpulls":6055,"Ġcontinuity":6056,"ĠRoger":6057,"ipping":6058,"low":6059,"mal":6060,"Ġded":6061,"Ġludic":6062,"uty":6063,"Ġarg":6064,"ĠAnna":6065,"Ġpolic":6066,"Ġcomplain":6067,"craft":6068,"Ġbesides":6069,"Ġhealth":6070,"ĠMin":6071,"ĠComp":6072,"ĠOld":6073,"Ġenter":6074,"Ġfarm":6075,"Ġswim":6076,"Ġrequired":6077,"Ġmassive":6078,"Ġhanging":6079,"ĠAvoid":6080,"cr":6081,"ato":6082,"arning":6083,"ĠHalloween":6084,"Ġjeal":6085,"Ġcontact":6086,"Ġminds":6087,"Ġprofound":6088,"Ġ1930":6089,"Ġprepared":6090,"ĠCalifornia":6091,"ĠEastwood":6092,"11":6093,"Ġstom":6094,"Ġeffectively":6095,"apping":6096,"Ġdeaths":6097,"loved":6098,"Ġcrying":6099,"Ġimprove":6100,"ĠParker":6101,"cons":6102,"chen":6103,"world":6104,"Ġice":6105,"enced":6106,"Ġstalk":6107,"Ġcovered":6108,"Ġprivate":6109,"aust":6110,"Ġtask":6111,"ĠHoff":6112,"ulci":6113,"ĠThree":6114,"Ġexcess":6115,"ĠArt":6116,"Ġpolitics":6117,"ĠSadly":6118,"Ġpaced":6119,"ethe":6120,"ĠALL":6121,"ĠSaturday":6122,"ĠRad":6123,"Ġflo":6124,"Ġtrapped":6125,"ocal":6126,"ibal":6127,"ga":6128,"ipped":6129,"rie":6130,"Ġcust":6131,"amous":6132,"ĠDennis":6133,"ĠPort":6134,"ĠRain":6135,"Ġworry":6136,"ourne":6137,"ĠUs":6138,"Ġskip":6139,"Ġdriver":6140,"written":6141,"Ġremotely":6142,"ĠApparently":6143,"\").":6144,"fess":6145,"Ġbab":6146,"Ġdress":6147,"rol":6148,"Ġsimpl":6149,"Ġreporter":6150,"Ġrenting":6151,"Ġstatus":6152,"Ġstereotypical":6153,"Ġreputation":6154,"Ġfix":6155,"ito":6156,"Ġpile":6157,"Ġflow":6158,"Ġcris":6159,"Ġimagery":6160,"Ġassum":6161,"Ġnarration":6162,"Ġservice":6163,"Ġfrightening":6164,"Ġabandoned":6165,"atically":6166,"ĠIre":6167,"ĠTri":6168,"Ġash":6169,"ĠHad":6170,"Ġreminis":6171,"Ġextras":6172,"Ġrepet":6173,"Ġfocused":6174,"Ġveteran":6175,"Ġfictional":6176,"cies":6177,"orig":6178,"ety":6179,"ĠMST":6180,"ĠCas":6181,"ems":6182,"Ġsche":6183,"ĠChannel":6184,"Ġcourage":6185,"Ġconcert":6186,"Ġsensitive":6187,"Ġsne":6188,"Ġ/>*":6189,"ĠMOV":6190,"ĠWall":6191,"Ġupset":6192,"Ġgreater":6193,"Ġdistinct":6194,"Ġseasons":6195,"Ġaccompan":6196,"breaking":6197,"dim":6198,"wing":6199,"Ġtiny":6200,"Ġwins":6201,"ĠSometimes":6202,"ĠCost":6203,"ĠOb":6204,"Ġnostal":6205,"ĠDonald":6206,"Ġmistakes":6207,"20":6208,"iat":6209,"Ġhired":6210,"ĠTake":6211,"ĠDun":6212,"Ġconvinced":6213,"Ġarrives":6214,"GM":6215,"IM":6216,"ĠBull":6217,"ĠOff":6218,"ĠBrooks":6219,"ĠDean":6220,"Ġdevice":6221,"Ġtremend":6222,"ĠUSA":6223,"Ġencou":6224,"Ġcloser":6225,"zil":6226,"ani":6227,"ĠBon":6228,"ĠThrough":6229,"Ġmainstream":6230,"Ġcalling":6231,"Ġaddict":6232,"ĠBeat":6233,"Ġconcent":6234,"Ġpainting":6235,"ĠWithout":6236,"Ġuniverse":6237,"Ġweapons":6238,"ĠEspecially":6239,"bit":6240,"ooth":6241,"Ġske":6242,"Ġwid":6243,"Ġfu":6244,"Ġcous":6245,"Ġbeach":6246,"Ġstolen":6247,"Ġsho":6248,"Ġdeeper":6249,"arden":6250,"Ġdepiction":6251,"Ġdistribut":6252,"ĠCarpent":6253,"Ġcritical":6254,"Ġruin":6255,"Ġhomosexual":6256,"ĠEnter":6257,"Ġinterviews":6258,"IGHT":6259,"Ġsink":6260,"Ġyell":6261,"Ġcann":6262,"Ġparticip":6263,"oster":6264,"Ġstayed":6265,"Ġoccasional":6266,"Ġfunnier":6267,"ĠVERY":6268,"etheless":6269,"Cl":6270,"ĠTor":6271,"Ġlift":6272,"ĠWor":6273,"Ġchair":6274,"Ġoverlook":6275,"ĠCarol":6276,"ĠIndia":6277,"laim":6278,"Ġ0":6279,"ĠHong":6280,"Ġplaced":6281,"Ġvast":6282,"ĠLane":6283,"Ġscenario":6284,"plays":6285,"Ġraised":6286,"liver":6287,"Ġcaptiv":6288,"uclear":6289,"Ġfocuses":6290,"Ġheavily":6291,"ĠPresident":6292,"och":6293,"Ġbore":6294,"asp":6295,"omer":6296,"Ġchoices":6297,"Ġunp":6298,"ĠUnder":6299,"Ġdecades":6300,"Ġsounded":6301,"Ġvampires":6302,"Ġdepartment":6303,"Every":6304,"ĠBack":6305,"iform":6306,"acre":6307,"Ġpreview":6308,"ĠVamp":6309,"Ġsuffer":6310,"Ġclosing":6311,"Ġoffered":6312,"Ġlegendary":6313,"ĠFer":6314,"Ġamazed":6315,"Ġcolors":6316,"Ġfigures":6317,"Ġgruesome":6318,"Ġnecessarily":6319,"after":6320,"can":6321,"Ġain":6322,"Ġbird":6323,"Ġdynam":6324,"Ġisol":6325,"ils":6326,"ilton":6327,"ĠDuring":6328,"igr":6329,"Ġguard":6330,"Ġdownright":6331,"Ġbuying":6332,"Ġexplains":6333,"Ġunivers":6334,"ĠQueen":6335,"Ġpuzz":6336,"sm":6337,"Ġtong":6338,"Ġreun":6339,"eter":6340,"ĠFulci":6341,"udge":6342,"ĠYour":6343,"Ġteeth":6344,"Ġcontest":6345,"Ġgritty":6346,"spired":6347,"Ġdriven":6348,"Ġreveals":6349,"ĠTarzan":6350,"ĠMexican":6351,"Ġmildly":6352,"Ġatrocious":6353,"Ġstomach":6354,"ĠHoffman":6355,"Man":6356,"ĠPri":6357,"ĠEach":6358,"Ġoverwhel":6359,"Ġkillers":6360,"Ġcommand":6361,"ĠPlay":6362,"Ġcontribut":6363,"Ġdinosaur":6364,"gon":6365,"Ġfab":6366,"Ġgre":6367,"amie":6368,"ĠCare":6369,"ĠRos":6370,"iano":6371,"coming":6372,"Ġpaying":6373,"Ġsisters":6374,"Ġunderstood":6375,"ĠTur":6376,"Ġloyal":6377,"Ġthrows":6378,"Ġblown":6379,"Ġkinds":6380,"Ġpaint":6381,"ĠPhill":6382,"Ġmurderer":6383,"wy":6384,"zed":6385,"onest":6386,"Ġanger":6387,"ĠBaby":6388,"elve":6389,"ĠNone":6390,"Ġaccording":6391,"Ġdemand":6392,"ĠHelen":6393,"Ġunconvincing":6394,"Do":6395,"case":6396,"asant":6397,"ĠMill":6398,"Ġscr":6399,"Ġintens":6400,"umble":6401,"ella":6402,"Ġobnox":6403,"Ġscreening":6404,"ĠClark":6405,"ĠBetty":6406,"Anyway":6407,"\"?":6408,"Ġwand":6409,"Ġfil":6410,"ona":6411,"Ġdom":6412,"ĠDie":6413,"Ġserve":6414,"ĠAsh":6415,"ĠArmy":6416,"Ġformat":6417,"Ġuninteresting":6418,"Ġsummary":6419,"gie":6420,"loyd":6421,"ĠAir":6422,"Ġcrude":6423,"ĠScar":6424,"Ġlistening":6425,"Ġchanging":6426,"Ġcomplicated":6427,"Ġfaithful":6428,"Yes":6429,"rees":6430,"ashy":6431,"Ġnaturally":6432,"imm":6433,"ĠSO":6434,"ĠBu":6435,"aki":6436,"aude":6437,"ĠChina":6438,"Ġspell":6439,"Ġcheese":6440,"belief":6441,"Ġdesigned":6442,"Ġsucceeds":6443,"ĠDracula":6444,"walk":6445,"inals":6446,"ĠDet":6447,"ĠNat":6448,"Ġ17":6449,"Ġbetray":6450,"ĠBeaut":6451,"ĠBlue":6452,"ĠWalter":6453,"Ġpregnant":6454,"IA":6455,"chy":6456,"Ġvia":6457,"ĠLater":6458,"Ġuniform":6459,"Ġmans":6460,"obb":6461,"Ġoriginality":6462,"Ġhandle":6463,"Ġlights":6464,"Ġcauses":6465,"Ġsignificant":6466,"Ġinhab":6467,"sch":6468,"isher":6469,"eral":6470,"ĠSun":6471,"Ġanime":6472,"Ġchief":6473,"Ġlog":6474,"Ġtrilogy":6475,"Ġcontain":6476,"Ġviews":6477,"---":6478,"ception":6479,"Ġwinner":6480,"Ġcombined":6481,"Ġminimal":6482,"iques":6483,"ĠHill":6484,"Ġtiming":6485,"Ġseek":6486,"Ġcoinc":6487,"Ġpassing":6488,"Ġuncle":6489,"Ġcampy":6490,"Ġlawyer":6491,"Ġludicrous":6492,"CT":6493,"aver":6494,"noon":6495,"ĠAra":6496,"Ġhaunted":6497,"ĠFBI":6498,"Ġprevent":6499,"ĠFriday":6500,"Ġgrave":6501,"ĠJulia":6502,"Ġintegr":6503,"ĠLuke":6504,"ĠCamer":6505,"ĠSinatra":6506,"Ġ***":6507,"Ġscares":6508,"ugos":6509,"Ġfacial":6510,"ĠNazi":6511,"dimensional":6512,"ioned":6513,"ĠDep":6514,"Ġcharge":6515,"Ġade":6516,"Ġprime":6517,"Ġsecurity":6518,"Ġwarned":6519,"Ġbrave":6520,"Ġmagical":6521,"ĠWWII":6522,"Ġquirky":6523,"gia":6524,"Ġpage":6525,"Ġnative":6526,"Ġnude":6527,"Ġstays":6528,"ĠSon":6529,"Ġrub":6530,"Ġarms":6531,"Ġsubsequ":6532,"nery":6533,"Ġshorts":6534,"Ġirre":6535,"ĠANY":6536,"Ġdivor":6537,"Ġgoofy":6538,"Ġdescription":6539,"fall":6540,"Ġbreaking":6541,"Ġthro":6542,"ids":6543,"ulated":6544,"Ġthrowing":6545,"Ġriver":6546,"Ġevident":6547,"Ġattempting":6548,"ĠMcG":6549,"Ġdelivery":6550,"ĠDoctor":6551,"Another":6552,"ĠBerg":6553,"girl":6554,"erved":6555,"Ġreward":6556,"Ġliber":6557,"Ġdogs":6558,"Ġstrict":6559,".)<":6560,"Ġappreciated":6561,"Ġstruggling":6562,"ĠGrand":6563,"Ġcapital":6564,"Ġanswers":6565,"ĠSwed":6566,"From":6567,"pr":6568,"Ġfet":6569,"ĠAL":6570,"ĠWonder":6571,"acle":6572,"Ġblat":6573,"Ġexamples":6574,"Ġamazingly":6575,"Ġforest":6576,"Ġadvant":6577,"Ġcondition":6578,"ĠSunday":6579,"ĠCarpenter":6580,"from":6581,"Ġchuck":6582,"usty":6583,"ĠPitt":6584,"ĠKurt":6585,"Ġrights":6586,"Ġcarried":6587,"Ġjobs":6588,"Ġmetap":6589,"Ġexpressions":6590,"Ġinspiration":6591,"Ġfond":6592,"Ġseve":6593,"ĠMiller":6594,"ĠMGM":6595,"Ġcomical":6596,"ĠInc":6597,"Ġextent":6598,"OOD":6599,"Ġregarding":6600,"called":6601,"Ġtear":6602,"ĠWelles":6603,"hett":6604,"Ġpatient":6605,"ĠOtherwise":6606,"Ġproperly":6607,"ĠMeanwhile":6608,"den":6609,"iable":6610,"jud":6611,"espite":6612,"ida":6613,"Ġhalfway":6614,"ĠInde":6615,"ĠGrant":6616,"ĠPlan":6617,"Ġignor":6618,"Ġdisagree":6619,"ds":6620,"mod":6621,"Ġtheory":6622,"Ġelder":6623,"style":6624,"Ġdozen":6625,"Ġexer":6626,"Ġaliens":6627,"ĠRet":6628,"osity":6629,"ĠKnight":6630,"Ġdisbelief":6631,"Ġcarries":6632,"Ġrule":6633,"Ġintroduction":6634,"Ġdesperately":6635,"Ġjoin":6636,"Ġsophistic":6637,"kind":6638,"tt":6639,"ught":6640,"Ġinj":6641,"Ġeth":6642,"ĠCage":6643,"ĠPa":6644,"Ġstorytelling":6645,"Ġeveryday":6646,"Ġincor":6647,"Ġsurf":6648,"Ġnovels":6649,"Ġweekend":6650,"Ġracist":6651,"ez":6652,"hib":6653,"Ġnu":6654,"Ġnuclear":6655,"ada":6656,"cean":6657,"Ġbutt":6658,"ĠDirect":6659,"ĠLloyd":6660,"ĠJay":6661,"ĠNY":6662,"Ġstarred":6663,"Ġdinner":6664,"horror":6665,"Ġbreathtaking":6666,"ĠSarah":6667,"iner":6668,"Ġgar":6669,"Ġ/>(":6670,"idents":6671,"ĠEnd":6672,"Ġguar":6673,"Ġbasis":6674,"Ġdrives":6675,"Ġdrinking":6676,"Ġobnoxious":6677,"nes":6678,"nda":6679,"adays":6680,"ĠCru":6681,"ĠCann":6682,"ĠDa":6683,"ifies":6684,"actic":6685,"ĠRac":6686,"Ġmere":6687,"ĠKane":6688,"ianc":6689,"Ġenjoying":6690,"Ġhelping":6691,"ĠAbout":6692,"his":6693,"Ġtun":6694,"Ġmas":6695,"Ġbill":6696,"char":6697,"ĠSav":6698,"ĠMod":6699,"ĠGoth":6700,"ounding":6701,"plend":6702,"Ġcheer":6703,"Ġrelated":6704,"Ġtouched":6705,"ĠCharl":6706,"ĠWarner":6707,"ĠBurton":6708,"Ġracism":6709,"Le":6710,"iber":6711,"Ġbuddy":6712,"Ġheaven":6713,"ĠSovie":6714,"ĠCooper":6715,"Ġdiss":6716,"Ġadop":6717,"Ġserved":6718,"beit":6719,"Ġletter":6720,"Ġbaseball":6721,"Ġinterpretation":6722,"ĠMickey":6723,"80":6724,"Mar":6725,"OP":6726,"Ġbik":6727,"ĠOw":6728,"igned":6729,"Ġstupidity":6730,"Ġtransform":6731,"ĠItaly":6732,"Ġexecut":6733,"Ġproductions":6734,"Ġassistant":6735,"Ġtree":6736,"ingers":6737,"iled":6738,"Ġmock":6739,"Ġfranch":6740,"ĠLOV":6741,"ĠFin":6742,"...\"":6743,"Ġblah":6744,"Ġtitles":6745,"Ġmentally":6746,"Ġignore":6747,"utherland":6748,"roph":6749,"ĠCome":6750,"ĠCole":6751,"Ġjungle":6752,"ĠOur":6753,"ĠRec":6754,"Ġretarded":6755,"Ġcredible":6756,"Ġcredibility":6757,"Ġparall":6758,"Ġpurely":6759,"Ġreference":6760,"ĠMOVIE":6761,"Is":6762,"something":6763,"inging":6764,"Ġhipp":6765,"Ġrev":6766,"ĠWind":6767,"onda":6768,"ĠMarg":6769,"Ġpicks":6770,"Ġpsycho":6771,"Ġflawed":6772,"liners":6773,"CK":6774,"Ġcand":6775,"Ġbeloved":6776,"ĠHave":6777,"aped":6778,"Ġentry":6779,"ĠArgent":6780,"Ġcultural":6781,"Ġratings":6782,"Ġturkey":6783,"Am":6784,"fits":6785,"bra":6786,"cker":6787,"tending":6788,"Ġcaring":6789,"ĠArm":6790,"Ġmiscast":6791,"iamond":6792,"ĠAustralia":6793,"Ġdetermined":6794,"Ġcontroversial":6795,"Ġfac":6796,"Ġdude":6797,"ĠMom":6798,"ĠMovies":6799,"Ġwears":6800,"Ġplastic":6801,"Ġrank":6802,"Ġcomedian":6803,"Ġsettings":6804,"Ġtreasure":6805,"Ġrevolves":6806,"Ġreminiscent":6807,"Ġbow":6808,"ĠSir":6809,"ĠPerson":6810,"Ġunbe":6811,"ĠKar":6812,"ĠKrist":6813,"ĠKarl":6814,"atching":6815,"Ġmedical":6816,"Ġtechnique":6817,"Ġaccepted":6818,"Ġattacks":6819,"Ġlonely":6820,"vo":6821,"Ġcy":6822,"Ġhole":6823,"ĠMass":6824,"Ġexists":6825,"ouses":6826,"Ġargu":6827,"Ġpoet":6828,"Ġawards":6829,"weet":6830,"ibilities":6831,"ographer":6832,"Ġescapes":6833,"ĠMusic":6834,"wyck":6835,"Ġtense":6836,"Ġstunt":6837,"ĠCap":6838,"Ġshadow":6839,"Ġcha":6840,"Ġalright":6841,"ĠStud":6842,"Ġdeadly":6843,"Ġannoun":6844,"ĠAmaz":6845,"Ġamongst":6846,"Ġjournal":6847,"Ġ1940":6848,"ĠSanta":6849,"Ġwelcome":6850,"Michael":6851,"ams":6852,"ĠHA":6853,"Ġshark":6854,"olph":6855,"Ġrolling":6856,"Ġflight":6857,"Ġinteract":6858,"Ġtopic":6859,"Ġcountries":6860,"Ġattacked":6861,"Ġimmense":6862,"Ġinternational":6863,"lynn":6864,"Ġsinister":6865,"Ġashamed":6866,"BS":6867,"ease":6868,"orc":6869,"utter":6870,"Ġshape":6871,"antino":6872,"Ġbackd":6873,"Ġgrim":6874,"Ġcastle":6875,"except":6876,"Ġindie":6877,"Ġadmir":6878,"Ġstruggles":6879,"ĠWoody":6880,"Ġreplaced":6881,"Ġton":6882,"Ġnation":6883,"ĠBL":6884,"Ġlibr":6885,"ĠRen":6886,"ĠLat":6887,"ĠLos":6888,"Ġlearning":6889,"Ġsheriff":6890,"ĠKaren":6891,"Ġresist":6892,"ĠDevil":6893,"Ġperfection":6894,"Ġconfusion":6895,"ronic":6896,"Ġseparate":6897,"hh":6898,"Ġtag":6899,"aron":6900,"ĠProdu":6901,"ĠOz":6902,"Ġunderground":6903,"Ġdeliber":6904,"Ġcarrying":6905,"Ġcriminals":6906,"ĠPhilip":6907,"Ġbalance":6908,"Let":6909,"Ġfulf":6910,"Ġhar":6911,"ĠLisa":6912,"iger":6913,"Ġgreatly":6914,"forward":6915,"Ġdisgu":6916,"Ġguessing":6917,"Ġanticip":6918,"Ġmiles":6919,"ĠMexico":6920,"Ġrisk":6921,"Ġstylish":6922,"Ġgraphics":6923,"Ġintensity":6924,"Ġadvantage":6925,"die":6926,"fest":6927,"Ġmature":6928,"Ġcock":6929,"Ġped":6930,"ĠHal":6931,"Ġsuffe":6932,"plete":6933,"Ġafternoon":6934,"Ġremo":6935,"Ġhorrific":6936,"Ġstops":6937,"Ġaston":6938,"Ġthousands":6939,"ĠSusan":6940,"ĠBergman":6941,"inate":6942,"ĠSutherland":6943,"Ġkung":6944,"Ġnose":6945,"Ġadding":6946,"ĠUnlike":6947,"vised":6948,"Ġexceptional":6949,"ification":6950,"gypt":6951,"Ġembarrassed":6952,"iveness":6953,"Ġgripping":6954,"Ġpoignant":6955,"Ġtongue":6956,"fun":6957,"Ġtune":6958,"ingu":6959,"ustrated":6960,"opath":6961,"ĠLost":6962,"Ġcance":6963,"ello":6964,"Ġdislike":6965,"ĠChic":6966,"Ġraw":6967,"stery":6968,"rett":6969,"ĠArn":6970,"chell":6971,"Ġspoiler":6972,"sett":6973,"Ġnetwork":6974,"ĠKennedy":6975,"Ġcynical":6976,"ĠVincent":6977,"By":6978,"Ġhip":6979,"Ġlazy":6980,"adows":6981,"Ġul":6982,"ĠSomething":6983,"rial":6984,"ĠMU":6985,"ĠHa":6986,"ĠRa":6987,"ĠAlong":6988,"Ġsleazy":6989,"Ġangle":6990,"ĠPrince":6991,"Christ":6992,"Ġwealthy":6993,"ĠPacino":6994,"Dav":6995,"pal":6996,"oration":6997,"ĠAward":6998,"ĠCons":6999,"ĠVen":7000,"Ġletting":7001,"Ġmindless":7002,"Ġ1990":7003,"Ġinnocence":7004,"ĠSuperman":7005,"hard":7006,"Ġphen":7007,"alley":7008,"Ġweight":7009,"ĠLand":7010,"Ġarrog":7011,"ishment":7012,"gettable":7013,"Ġscreenwriter":7014,"Ġscripts":7015,"Ġopened":7016,"Ġpresentation":7017,"Ġmagaz":7018,"Ġequal":7019,"Ġidiotic":7020,"ĠFreddy":7021,"Ġchallenge":7022,"Ġmountain":7023,"Ġlaid":7024,"Ġnom":7025,"Ġnational":7026,"story":7027,"ĠCaine":7028,"ĠWater":7029,"Ġlovable":7030,"ĠIntern":7031,"ĠAlt":7032,"rama":7033,"Ġportra":7034,"Ġinnov":7035,"Ġfrequently":7036,"chant":7037,"ĠCry":7038,"ĠThings":7039,"ogical":7040,"ocr":7041,"Ġfinan":7042,"Ġconsists":7043,"Ġartists":7044,"ĠReyn":7045,"ĠClass":7046,"Ġsuggests":7047,"Ġsleeping":7048,"bid":7049,"mates":7050,"wor":7051,"Ġbon":7052,"semble":7053,"ĠBesides":7054,"Ġjumps":7055,"ĠFlor":7056,"Ġneck":7057,"aste":7058,"Ġclips":7059,"Ġcontract":7060,"Ġfairy":7061,"Ġadventures":7062,"Ġfranchise":7063,"TER":7064,"Ġcases":7065,"Ġpool":7066,"ĠDave":7067,"ĠPL":7068,"ĠGi":7069,"ogue":7070,"Ġcreation":7071,"Ġatmospher":7072,"ĠBasically":7073,"Ġcave":7074,"ila":7075,"ĠCatherine":7076,"Ġvivid":7077,"ĠNol":7078,"phan":7079,"Ġ2001":7080,"!!!!!!!!":7081,"Ġsteps":7082,"ĠHardy":7083,"ĠColumbo":7084,"EL":7085,"Ġnoted":7086,"Ġvir":7087,"ĠAndre":7088,"Ġunfold":7089,"Ġrobot":7090,"ĠWalker":7091,"Ġimaginative":7092,"ĠCameron":7093,"Ġaired":7094,"Ġnotable":7095,"ĠDream":7096,"ĠPowell":7097,"ĠLaura":7098,"ĠOliver":7099,"Ġmanager":7100,"retty":7101,"Ġborder":7102,"ĠBritain":7103,"Ġtechniques":7104,"ĠSchool":7105,"==":7106,"mitted":7107,"pris":7108,"writ":7109,"Ġcorn":7110,"Ġhiding":7111,"cia":7112,"Ġourselves":7113,"Ġsky":7114,"Ġoccup":7115,"Ġrobber":7116,"original":7117,"Ġwanna":7118,"Ġfirm":7119,"ĠBollywood":7120,"than":7121,"Ġinstall":7122,"ĠBlair":7123,"Ġnightmare":7124,"ĠTommy":7125,"going":7126,"ĠStanwyck":7127,"Ġspecific":7128,"mate":7129,"hest":7130,"order":7131,"ĠTurn":7132,"Ġwasting":7133,"ĠAst":7134,"ĠSPOILERS":7135,"rig":7136,"ĠWolf":7137,"ĠPG":7138,"ĠThing":7139,"Ġripped":7140,"airs":7141,"Ġsket":7142,"ĠMarie":7143,"Ġurban":7144,"Ġsuffered":7145,"?).":7146,"Will":7147,"sky":7148,"alph":7149,"cellent":7150,"ĠWere":7151,"Ġexch":7152,"Ġdece":7153,"ĠEgypt":7154,"ogan":7155,"Ġraise":7156,"ointed":7157,"Ġuseless":7158,"Ġattempted":7159,"ĠClint":7160,"Ġappearances":7161,"Ġironic":7162,"Ġpsychiat":7163,"Ġstunts":7164,"bbed":7165,"ĠGrace":7166,"Ġofficial":7167,"ĠGolden":7168,"Ġsearching":7169,"30":7170,"OD":7171,"UL":7172,"ype":7173,"Ġ**":7174,"Ġhes":7175,"amor":7176,"unning":7177,"Ġvi":7178,"ooky":7179,"Ġenorm":7180,"ĠChuck":7181,"Ġhappiness":7182,"umbs":7183,"Ġrestaur":7184,"Ġfallen":7185,"Ġsuccessfully":7186,"Ġsedu":7187,"Ġvideos":7188,"iation":7189,"Ġsings":7190,"asion":7191,"seud":7192,"Ġstates":7193,"Ġstorm":7194,"ĠHunter":7195,"Ġchilling":7196,"Ġalt":7197,"Ġconven":7198,"Ġrelax":7199,"Ġaccess":7200,"cover":7201,"ĠSoon":7202,"Ã©e":7203,"comedy":7204,"Ġcorpor":7205,"ĠConnery":7206,"EAD":7207,"Ġboredom":7208,"Ġphysically":7209,"ĠMatth":7210,"Ġhooked":7211,"Ġoblig":7212,"ĠUniversal":7213,"Ġcousin":7214,"list":7215,"nan":7216,"ĠBell":7217,"ĠDad":7218,"Ġvent":7219,"ĠGriff":7220,"Ġfriendly":7221,"ibl":7222,"Ġrefuses":7223,"Ġfemin":7224,"Ġsexuality":7225,"Ġmeaningful":7226,"Ġinitially":7227,"Ġconsequences":7228,"ĠSoviet":7229,"AA":7230,"Ġtempt":7231,"Ġsplend":7232,"erior":7233,"arter":7234,"Ġlying":7235,"oops":7236,"ĠMAN":7237,"Ġjack":7238,"ĠFair":7239,"Ġinstantly":7240,"ĠDefinitely":7241,"ĠSomeone":7242,"Ġprotagonists":7243,"Ġbelongs":7244,"Ġtribute":7245,"Ġmarvelous":7246,"Ġestablished":7247,"Ġtorn":7248,"ader":7249,"ĠWes":7250,"ĠFle":7251,"ĠGreek":7252,"inda":7253,"ĠNancy":7254,"Ġenh":7255,"place":7256,"plots":7257,"obi":7258,"Ġproof":7259,"ĠAlien":7260,"Ġrepeat":7261,"Ġachieved":7262,"Ġweapon":7263,"lance":7264,"when":7265,"itchell":7266,"Ġtoile":7267,"Ġdign":7268,"Ġlyr":7269,"ĠLore":7270,"erty":7271,"Ġovercome":7272,"Ġspoken":7273,"ĠAtl":7274,"Ġirony":7275,"Ġstealing":7276,"rified":7277,"Ġessential":7278,"ĠSeriously":7279,"Ġcompetent":7280,"ĠMichelle":7281,"Ġfabulous":7282,"Mr":7283,"ux":7284,"Ġgal":7285,"ulate":7286,"ĠLion":7287,"ĠFamily":7288,"quis":7289,"Ġlegs":7290,"Ġwerewolf":7291,"Ġposter":7292,"Ġconvict":7293,"Ġsurrounding":7294,"ĠREALLY":7295,"ĠAndrews":7296,"Robert":7297,"Ġexercise":7298,"Bra":7299,"prise":7300,"vably":7301,"stop":7302,"iments":7303,"ĠSol":7304,"Ġanal":7305,"Ġsends":7306,"uno":7307,"elson":7308,"Ġarr":7309,"ĠVeg":7310,"atholic":7311,"Ġtrial":7312,"ĠMaria":7313,"Who":7314,"Ġweakness":7315,"Ġsurviv":7316,"ĠVictoria":7317,"ĠFreeman":7318,"ĠSatan":7319,"BLE":7320,"hill":7321,"Ġtied":7322,"itar":7323,"Ġnurse":7324,"rier":7325,"ĠCind":7326,"ulk":7327,"ĠFlynn":7328,"Ġpreach":7329,"orses":7330,"Ġwarn":7331,"Ġlacked":7332,"ĠTarantino":7333,"Ġcrafted":7334,"Ġneighborhood":7335,"Ġsentimental":7336,"ĠObviously":7337,"ĠReynolds":7338,"end":7339,"ped":7340,"va":7341,"Ġinfect":7342,"ĠId":7343,"entric":7344,"iders":7345,"ushes":7346,"Ġtraum":7347,"Ġtriumph":7348,"Ġelabor":7349,"Ġcaric":7350,"ONE":7351,"Ġscientists":7352,"Ġambig":7353,"Ġobsession":7354,"Ġneighb":7355,"Ġmirror":7356,"hold":7357,"kick":7358,"aser":7359,"Ġeager":7360,"Ġshines":7361,"ĠFu":7362,"Ġmeat":7363,"Ġtender":7364,"Ġhorrend":7365,"oche":7366,"Ġappearing":7367,"Ġclosely":7368,"Ġdestro":7369,"Ġtroubled":7370,"accur":7371,"ELL":7372,"gun":7373,"wife":7374,"orrow":7375,"Ġpseud":7376,"ctions":7377,"aying":7378,"Ġstumb":7379,"ĠSky":7380,"ĠSorry":7381,"Ġsevent":7382,"ĠHome":7383,"cket":7384,"iffe":7385,"aky":7386,"Ġspots":7387,"Ġincons":7388,"thew":7389,"Ġterrit":7390,"ĠCharact":7391,"Ġsolve":7392,"Ġmusicals":7393,"Ġspiritual":7394,"Ġessence":7395,"Ġperformers":7396,"Ġvacation":7397,"?),":7398,"woman":7399,"Ġtrap":7400,"Ġsaves":7401,"Ġfest":7402,"Ġbudd":7403,"Ġthick":7404,"asingly":7405,"ĠSally":7406,"ĠSuch":7407,"ĠCurt":7408,"ĠHud":7409,"eline":7410,"ĠLI":7411,"Ġseeking":7412,"ours":7413,"Ġglimp":7414,"lett":7415,"Ġmillions":7416,"Ġconnected":7417,"ĠOliv":7418,"ĠGeneral":7419,"ugosi":7420,"Ġglimpse":7421,"rich":7422,"Ġwishes":7423,"ata":7424,"Ġthirty":7425,"Ġbeer":7426,"ĠWould":7427,"Ġplant":7428,"ĠPage":7429,"ĠPenn":7430,"Ġtransfer":7431,"Ġannoyed":7432,"Ġdevil":7433,"uppet":7434,"Ġbroke":7435,"ĠComedy":7436,"Ġhomage":7437,"Ġautom":7438,"ĠBobby":7439,"Ġuncomfortable":7440,"ĠCont":7441,"Ġjerk":7442,"Ġintention":7443,"ĠJamie":7444,"Ġspy":7445,"ĠVirgin":7446,"angle":7447,"Ġenjoyment":7448,"Ġcoach":7449,"Ġcarefully":7450,"Ġdramas":7451,"Ġdevelops":7452,"Ġdealt":7453,"Ġdaughters":7454,"Ġshoots":7455,"ĠTrue":7456,"Ġ:)":7457,"ĠFranco":7458,"Ġhundreds":7459,"Ġatmospheric":7460,"60":7461,"Jack":7462,"LD":7463,"direct":7464,"ĠBAD":7465,"Ġchases":7466,"ifting":7467,"Ġjew":7468,"aws":7469,"ructed":7470,"Ġinco":7471,"Ġdecl":7472,"Ġnowadays":7473,"Ġstranger":7474,"gging":7475,"Ġexplicit":7476,"Ġborrow":7477,"Ġlesser":7478,"Ġmonth":7479,"Ġopposed":7480,"Ġpersonalities":7481,"Ġconcerns":7482,"ĠPolice":7483,"Ġmont":7484,"Ġpush":7485,"Ġdump":7486,"ĠBall":7487,"ĠMid":7488,"Ġchoos":7489,"agine":7490,"ĠGreg":7491,"redict":7492,"Ġensemble":7493,"mentioned":7494,"Ġquote":7495,"awa":7496,"Ġrain":7497,"Ġdarkness":7498,"Ġthrilling":7499,"ielberg":7500,"Ġmadness":7501,"Ġidentify":7502,"Ġbroadcast":7503,"Ġthousand":7504,"Ġmiserably":7505,"Ġbattles":7506,"Ġunforgettable":7507,"Ġultra":7508,"cut":7509,"uke":7510,"inent":7511,"Ġsail":7512,"Ġthread":7513,"stone":7514,"ĠTop":7515,"ado":7516,"ĠHBO":7517,"ellar":7518,"Ġguilt":7519,"Ġbeings":7520,"riller":7521,"Ġbucks":7522,"emption":7523,"ĠReg":7524,"Ġimportantly":7525,"ANT":7526,"ĠGermans":7527,"Ġafford":7528,"Ġoutrageous":7529,"Ġadequ":7530,"gra":7531,"Ġwreck":7532,"Ġtow":7533,"Ġstyl":7534,"Ġstiff":7535,"ĠAlf":7536,"ĠBurt":7537,"rael":7538,"ĠLem":7539,"Ġpointed":7540,"Ġstruck":7541,"Ġdollar":7542,"Ġkidnapped":7543,"13":7544,"iently":7545,"onse":7546,"oma":7547,"Ġupper":7548,"Ġsuits":7549,"Ġvirgin":7550,"ĠRic":7551,"acked":7552,"ĠKiller":7553,"Ġconspir":7554,"Ġlessons":7555,"Ġdrags":7556,"Ġlarger":7557,"Ġmetal":7558,"Ġprofession":7559,"Ġuninspired":7560,"van":7561,"Ġtax":7562,"brick":7563,"Ġnotch":7564,"Ġattend":7565,"Ġalb":7566,"ĠRep":7567,"ĠGen":7568,"Ġspending":7569,"Ġgrows":7570,"why":7571,"ĠArnold":7572,"US":7573,"rase":7574,"too":7575,"Ġwra":7576,"ĠMitchell":7577,"ĠWOR":7578,"ĠDrew":7579,"Ġactiv":7580,"Ġkicks":7581,"ĠPoor":7582,"ĠRes":7583,"Ġknife":7584,"Ġaged":7585,"Ġhopefully":7586,"Ġswitch":7587,"Ġacceptable":7588,"ĠProbably":7589,"Good":7590,"water":7591,"Ġcitiz":7592,"anc":7593,"Ġdare":7594,"Ġinaccur":7595,"Ġheist":7596,"Ġnewsp":7597,"Ġstriking":7598,"ĠActing":7599,"Ġincompet":7600,"Ġunbear":7601,"Con":7602,"OK":7603,"ĠMet":7604,"Ġrushed":7605,"Ġtricks":7606,"Ġembr":7607,"Ġsmooth":7608,"Ġdialogs":7609,"Ġignored":7610,"Ġincreasingly":7611,"ĠRachel":7612,"rep":7613,"Ġfaced":7614,"Ġhill":7615,"Ġecc":7616,"Ġbeating":7617,"Ġchasing":7618,"ĠDri":7619,"ifying":7620,"ĠFro":7621,"ĠGill":7622,"Ġunple":7623,"ĠKen":7624,"......":7625,"Ġtalked":7626,"Ġbriefly":7627,"Ġcolorful":7628,"Unfortunately":7629,"handed":7630,"Director":7631,"lee":7632,"Ġmoon":7633,"Ġreb":7634,"ĠAT":7635,"Ġselect":7636,"agan":7637,"ĠFather":7638,"uments":7639,"ĠNet":7640,"ĠNational":7641,"ĠBrid":7642,"ographic":7643,"ĠWend":7644,"Ġsuperfic":7645,"ĠPrin":7646,"Char":7647,"Ġabrupt":7648,"ĠMatthau":7649,"Ġhung":7650,"Ġgain":7651,"istically":7652,"ĠLiving":7653,"igan":7654,"erella":7655,"Ġ45":7656,"ormal":7657,"pses":7658,"Ġstrangely":7659,"Ġambitious":7660,"Ġcompetition":7661,"Ġdropped":7662,"--------":7663,"Ġrepeatedly":7664,"Ġdaily":7665,"ĠKorean":7666,"Ad":7667,"Paul":7668,"icing":7669,"kel":7670,"ĠMa":7671,"Ġchap":7672,"Ġrhy":7673,"Ġunh":7674,"udos":7675,"Ġspread":7676,"ĠHeaven":7677,"Ġattraction":7678,"Ġsexually":7679,"Ġdragged":7680,"Ġriding":7681,"Ġhoped":7682,"Ġrevealing":7683,"Ġfolk":7684,"ĠJessica":7685,"Ġendearing":7686,"Ġinevitable":7687,"Ġrepetitive":7688,"pse":7689,"Ġsize":7690,"Ġfianc":7691,"Ġtoss":7692,"Ġdomin":7693,"Ġguts":7694,"Ġshall":7695,"acted":7696,"Ġcomfort":7697,"aka":7698,"Ġqueen":7699,"Ġchest":7700,"Ġsubplot":7701,"Ġeditor":7702,"Ġcorner":7703,"ĠIsrael":7704,"Ġthrillers":7705,"Ġdestruction":7706,"lover":7707,"Ġlimit":7708,"ĠCheck":7709,"Ġwesterns":7710,"Ġdisappear":7711,"ĠJonathan":7712,"series":7713,"bal":7714,"Ġbott":7715,"ĠDi":7716,"ĠLugosi":7717,"Ġremaining":7718,"Ġrelevant":7719,"ĠSpielberg":7720,"Ġexpensive":7721,"ĠIndians":7722,"Ġghosts":7723,"Ġcuriosity":7724,"Ġmelodramatic":7725,"âĢĻ":7726,"Ġcringe":7727,"Ġportrait":7728,"hi":7729,"atisf":7730,"ĠMach":7731,"ĠPower":7732,"ĠRand":7733,"ĠRalph":7734,"mann":7735,"Ġhandful":7736,"Ġeasier":7737,"oilers":7738,"onestly":7739,"Ġsand":7740,"Ġtom":7741,"Ġgather":7742,"allo":7743,"ĠHolly":7744,"ĠDE":7745,"ĠDal":7746,"Ġruth":7747,"Ġlocked":7748,"ables":7749,"weight":7750,"Ġexplore":7751,"Ġpatri":7752,"Ġimportance":7753,"Ġattracted":7754,"Ġelectric":7755,"Ġcharisma":7756,"!.":7757,"Tw":7758,"Where":7759,"Ġthrew":7760,"Ġlur":7761,"icop":7762,"Ġselling":7763,"ĠMother":7764,"ĠHas":7765,"Ġrat":7766,"ĠKhan":7767,"new":7768,"Ġ24":7769,"Ġappalling":7770,"atchable":7771,"Ġeleg":7772,"Ġbrand":7773,"Ġnonetheless":7774,"Ġ2005":7775,"Ġfourth":7776,"Ġrequires":7777,"ĠLaurel":7778,"Ġvulner":7779,"70":7780,"book":7781,"Ġnail":7782,"ieu":7783,"cend":7784,"ĠBros":7785,"ĠMiy":7786,"Ġshy":7787,"ĠNelson":7788,"Ġtrite":7789,"Ġblows":7790,"Ġsuburb":7791,"Ġpresident":7792,"Ġcameos":7793,"Ġelev":7794,"Ġstudios":7795,"Ġselfish":7796,"Ġhonor":7797,"Ġinfamous":7798,"Ġbusy":7799,"AND":7800,"ĠNext":7801,"Ġengine":7802,"ĠAusten":7803,"Ġresponse":7804,"ĠNorman":7805,"Ġstretch":7806,"ĠSidney":7807,"Ġcandy":7808,"Ġstated":7809,"ĠCus":7810,"ptic":7811,"Ġfears":7812,"plane":7813,"ertainly":7814,"Ġterrifying":7815,"Ġilleg":7816,"Ġjudg":7817,"Ġdubbing":7818,"Ġintentions":7819,"Ġphenomen":7820,"via":7821,"Ġfinger":7822,"only":7823,"omic":7824,"Ġeerie":7825,"utch":7826,"ĠTem":7827,"Ġdepe":7828,"Ġargue":7829,"anging":7830,"Ġstring":7831,"Ġadapted":7832,"Ġindividuals":7833,"Ġsophisticated":7834,"Ġbackdrop":7835,"gain":7836,"ugh":7837,"Ġnuts":7838,"Ġstaff":7839,"ĠBac":7840,"ĠCur":7841,"Ġshout":7842,"ements":7843,"Ġabys":7844,"ĠPot":7845,"Ġwatches":7846,"Ġmyst":7847,"ĠHeart":7848,"Ġcreators":7849,"Ġglob":7850,"attan":7851,"********":7852,"Ġsympath":7853,"Ġsplit":7854,"Ġreactions":7855,"ĠPersonally":7856,"CE":7857,"Tom":7858,"iar":7859,"Ġafore":7860,"isation":7861,"Ġmes":7862,"ĠAz":7863,"eston":7864,"ĠFour":7865,"Ġclown":7866,"avor":7867,"ĠChurch":7868,"Ġreasonable":7869,"Ġelsewhere":7870,"ologist":7871,"Ġdemands":7872,"Ġreturning":7873,"Ġengaged":7874,"Ġprogress":7875,"ĠAngeles":7876,"Ġcommercials":7877,"Ġlifest":7878,"Ġexplosions":7879,"Ġbreasts":7880,"Ġtoilet":7881,"Ġterritory":7882,"Ġincoherent":7883,"Per":7884,"rink":7885,"oni":7886,"Ġpa":7887,"Ġlust":7888,"ĠGRE":7889,"Ġune":7890,"Ġfeed":7891,"Ġhappily":7892,"ivan":7893,"Ġrestra":7894,"Ġbasement":7895,"unky":7896,"Ġdevast":7897,"Ġmistaken":7898,"anagh":7899,"ĠMatrix":7900,"Ġhype":7901,"Ġinvestigation":7902,"Ġoccurs":7903,"Ġcardboard":7904,"ĠHudson":7905,"Ġunpleasant":7906,"isions":7907,"Ġhood":7908,"Ġhorses":7909,"ĠTit":7910,"Ġstood":7911,"ĠMA":7912,"ĠMitch":7913,"ĠHurt":7914,"ĠJer":7915,"Ġgoal":7916,"Ġimit":7917,"eremy":7918,"Ġcrimes":7919,"Ġpresum":7920,"Ġchecking":7921,"Ġpacked":7922,"ĠRogers":7923,"ĠPicture":7924,"ĠZombie":7925,"Ġrevelation":7926,"Ġtremendous":7927,"Finally":7928,"Like":7929,"Ġsque":7930,"Ġcig":7931,"ora":7932,"Ġpin":7933,"Ġdub":7934,"leton":7935,"Ġetern":7936,"ĠCub":7937,"ĠHug":7938,"agg":7939,"ĠThanks":7940,"abs":7941,"Ġrealise":7942,"ĠMorris":7943,"Ġobser":7944,"Ġprofessor":7945,"ĠLucy":7946,"Ġbleak":7947,"Ġreplace":7948,"Ġmotivation":7949,"Ġphilosoph":7950,"ĠDiane":7951,"ĠChicago":7952,"Ġrestaurant":7953,"Ġeccentric":7954,"Maybe":7955,"Ġmaker":7956,"Ġpiano":7957,"oms":7958,"ĠTru":7959,"Ġreli":7960,"uloid":7961,"usions":7962,"ĠRome":7963,"ĠGive":7964,"Ġprecise":7965,"ipes":7966,"Ġkillings":7967,"Ġbrilliance":7968,"ventually":7969,"oiler":7970,"bbing":7971,"Ġmedium":7972,"Ġraped":7973,"ĠAlexander":7974,"ĠSecret":7975,"ĠSandra":7976,"Ġwonders":7977,"Ġlibrary":7978,"dog":7979,"ipe":7980,"nic":7981,"Ġwicked":7982,"oner":7983,"ĠIce":7984,"ĠKirk":7985,"Ġclues":7986,"....<":7987,"Ġaccused":7988,"ograph":7989,"Ġinteraction":7990,"existent":7991,"ierce":7992,"Ġcaptain":7993,"ĠOscars":7994,"Ġdancer":7995,"Ġobserv":7996,"Ġinternet":7997,"Ġphotographer":7998,"ĠLeslie":7999,"ĠLeonard":8000,"Ġwidow":8001,"Ġhorrendous":8002,"Gr":8003,"Ġ..":8004,"idel":8005,"Ġareas":8006,"ablish":8007,"Ġhorrid":8008,"Ġexplod":8009,"ERS":8010,"Ġpleased":8011,"Ġrapid":8012,"Ġbeaten":8013,"Ġburst":8014,"Ġinexplic":8015,"'.<":8016,"Se":8017,"rd":8018,"such":8019,"Ġoil":8020,"aning":8021,"Ġdent":8022,"ĠBart":8023,"ĠFire":8024,"Ġprecious":8025,"ĠAnim":8026,"Ġdocumentaries":8027,"Ġpulling":8028,"Ġgrandfather":8029,"Ġassociated":8030,"ĠKubrick":8031,"ĠIndeed":8032,"Here":8033,"lines":8034,"omy":8035,"Ġ/>'":8036,"ĠHind":8037,"Ġshower":8038,"Ġperpet":8039,"Ġdisplays":8040,"Ġcharacterization":8041,"Ġmessages":8042,"Ġcountless":8043,"Ġ2000":8044,"Ġdetailed":8045,"Ġmerit":8046,"ambling":8047,"Ġsymbolism":8048,"Ġencounters":8049,"Ġelderly":8050,"David":8051,"writers":8052,"corn":8053,"heim":8054,"Ġwann":8055,"atched":8056,"iere":8057,"ĠHy":8058,"ĠHot":8059,"ĠWitch":8060,"agin":8061,"ĠRow":8062,"Ġranks":8063,"ĠJosh":8064,"ĠKath":8065,"Ġthrills":8066,"chest":8067,"Ġ2006":8068,"orthy":8069,"Star":8070,"ĠRussia":8071,"ĠEmily":8072,"Ġsurrounded":8073,"Ġsegments":8074,"Ġcowboy":8075,"Ġfifteen":8076,"Ġjealous":8077,"school":8078,"KE":8079,"mit":8080,"oven":8081,"itchen":8082,"omit":8083,"ĠTen":8084,"Ġallowing":8085,"Ġalike":8086,"Ġmechan":8087,"Ġtimeless":8088,"obody":8089,"Ġhelicop":8090,"194":8091,"Ġreturned":8092,"ĠConn":8093,"Ġarrive":8094,"Ġrepresents":8095,"minute":8096,"jointed":8097,"video":8098,"Ġwake":8099,"ĠMars":8100,"ĠMarsh":8101,"ĠCould":8102,"ophy":8103,"ĠPretty":8104,"ĠFR":8105,"ĠThink":8106,"ullivan":8107,"Ġguide":8108,"Ġperforming":8109,"Ġslick":8110,"ĠRee":8111,"veloped":8112,"Ġproviding":8113,"195":8114,"Ġforgive":8115,"Ġloser":8116,"Ġwalls":8117,"Ġfortun":8118,"Ġresolution":8119,"Ġhysterical":8120,"Ġholiday":8121,"Ġargument":8122,"Ġcried":8123,"ĠIng":8124,"idal":8125,"ĠSU":8126,"ela":8127,"Ġabilities":8128,"Ġoutcome":8129,"Ġrow":8130,"Ġdismiss":8131,"Ġdirectorial":8132,"Ġreasonably":8133,"Ġliking":8134,"Ġpleasantly":8135,"Ġadvance":8136,"Ġmerc":8137,"ĠScience":8138,"Ġphotographed":8139,"Ġaccomplished":8140,"minded":8141,"Ġmansion":8142,"Ġsubsequent":8143,"ĠOwen":8144,"onne":8145,"Ġtoy":8146,"Ġnine":8147,"Ġchain":8148,"Ġchamp":8149,"Ġwheel":8150,"ĠEmma":8151,"Ġ21":8152,"Ġreluct":8153,"Ġfarce":8154,"ĠBruno":8155,"Ġdetract":8156,"Ġhearts":8157,"Ġdrown":8158,"Ġmotor":8159,"Ġflawless":8160,"Ġspoiled":8161,"Ġreceive":8162,"ĠIII":8163,"Ġaffection":8164,"Ġwondered":8165,"Ġlandscape":8166,"Ġsplendid":8167,"tte":8168,"yc":8169,"Ġtons":8170,"hey":8171,"Ġcared":8172,"Ġecon":8173,"ilted":8174,"ooges":8175,"ĠSC":8176,"ira":8177,"ifically":8178,"anson":8179,"Ġenters":8180,"Ġantics":8181,"Ġnearby":8182,"ĠJuliet":8183,"Ġidiots":8184,"OME":8185,"Ġinsulting":8186,"Ġescaped":8187,"ĠNazis":8188,"Ġresembles":8189,"ĠCinema":8190,"Ġvirus":8191,"Br":8192,"rim":8193,"ĠBry":8194,"Ġwebs":8195,"Ġattached":8196,"Ġgotta":8197,"ords":8198,"Ġworthless":8199,"Ġfancy":8200,"Ġdefinite":8201,"Ġcomplaint":8202,"ĠFilms":8203,"Ġimmigr":8204,"Ġtortured":8205,"Ġburned":8206,"ĠWalken":8207,"cingly":8208,"ees":8209,"ih":8210,"Ġpushed":8211,"also":8212,"ĠAud":8213,"ĠCall":8214,"ĠGun":8215,"ĠGhost":8216,"ortion":8217,"ĠEver":8218,"ĠKa":8219,"eping":8220,"Ġaudio":8221,"Ġgenerous":8222,"Ġsadistic":8223,"Ġstronger":8224,"ĠFrankenstein":8225,"chers":8226,"Ġjumping":8227,"Ġcharismatic":8228,"cul":8229,"pieces":8230,"Ġmic":8231,"ĠBuddy":8232,"ĠCow":8233,"Ġextended":8234,"Ġalbeit":8235,"think":8236,"ĠGal":8237,"plo":8238,"...)":8239,"ĠStra":8240,"ĠAlmost":8241,"Ġbelieving":8242,"ERE":8243,"Ġswear":8244,"Ġangel":8245,"Ġcausing":8246,"Ġmeaningless":8247,"Ġhighlights":8248,"Ġfortune":8249,"Ġpossessed":8250,"Rich":8251,"Ġtall":8252,"Ġhunt":8253,"Ġpsy":8254,"Ġbeast":8255,"Ġsticks":8256,"ĠBaker":8257,"Ġbutton":8258,"ĠWoman":8259,"Ġworried":8260,"venile":8261,"wered":8262,"Ġrive":8263,"Ġresour":8264,"Ġsmoke":8265,"Ġinvis":8266,"Ġinsist":8267,"ĠFriend":8268,"isms":8269,"Ġdemons":8270,"196":8271,"Ġcombat":8272,"Ġsuspects":8273,"Ġcontinued":8274,"Ġaffected":8275,"ĠStanley":8276,"ĠHighly":8277,"ĠCanada":8278,"Ġcrisis":8279,"\";":8280,"Other":8281,"movies":8282,"uity":8283,"Ġhitting":8284,"Ġstead":8285,"rior":8286,"ĠHopper":8287,"ĠPen":8288,"ĠRoll":8289,"ĠRiver":8290,"type":8291,"Ġcompassion":8292,"Ġpersona":8293,"Ġpossibility":8294,"Ġdistance":8295,"Ġlisted":8296,"Ġpolitic":8297,"Ġplanning":8298,"Ġsurvival":8299,"Ġprojects":8300,"Ġdiscussion":8301,"Ġcelluloid":8302,"Ġaimed":8303,"____":8304,"Ġbathroom":8305,"ixture":8306,"ĠIreland":8307,"Ġsuperficial":8308,"Tr":8309,"rict":8310,"Ġbold":8311,"itches":8312,"Ġhire":8313,"Ġpig":8314,"Ġdaring":8315,"Ġgif":8316,"seen":8317,"ĠAbs":8318,"Ġweb":8319,"ĠCIA":8320,"Ġfrustrated":8321,"Ġwhoever":8322,"oln":8323,"ĠRing":8324,"ĠRight":8325,"peror":8326,"ĠWhatever":8327,"Ġimperson":8328,"Ġburied":8329,"Ġcovers":8330,"ĠReed":8331,"Ġmenacing":8332,"ĠCarter":8333,"Ġdrivel":8334,"onym":8335,"Ġiron":8336,"ĠGeor":8337,"Ġsentence":8338,"Ġrespond":8339,"Ġtravels":8340,"Ġdelivering":8341,"Ġachievement":8342,"Ġcalm":8343,"Ġunintentionally":8344,"Ġingred":8345,"crow":8346,"dated":8347,"fact":8348,"Ġ;":8349,"Ġsaf":8350,"Ġwack":8351,"Ġfitting":8352,"Ġgut":8353,"ĠSaw":8354,"ĠHanks":8355,"Ġsup":8356,"Ġplague":8357,"Ġcomfortable":8358,"ĠFurther":8359,"ĠEN":8360,"Ġload":8361,"Ġblast":8362,"!!!!!":8363,"Ġdiff":8364,"Ġcareers":8365,"ĠCarrey":8366,"Ġsubjects":8367,"ĠNeed":8368,"Ġinspiring":8369,"ESS":8370,"Ġsouls":8371,"Ġloosely":8372,"Ġoffended":8373,"Ġassassin":8374,"Ġobscure":8375,"Ġmagazine":8376,"AIN":8377,"hour":8378,"jo":8379,"hew":8380,"erning":8381,"Ġdiver":8382,"ĠSister":8383,"Ġvenge":8384,"Ġmaniac":8385,"Ġdisjointed":8386,"aval":8387,"because":8388,"Ġchildish":8389,"Ġconsum":8390,"Ġconcerning":8391,"ĠWillis":8392,"artha":8393,"Ġtypically":8394,"Ġridiculously":8395,"Ġstrip":8396,"Ġredemption":8397,"rifice":8398,"ĠTrain":8399,"ĠMatthew":8400,"Ġdraws":8401,"Ġgolden":8402,"Ġbirthday":8403,"ĠLinda":8404,"Ġinvolvement":8405,"Despite":8406,"bury":8407,"got":8408,"gal":8409,"iper":8410,"kish":8411,"lers":8412,"itudes":8413,"ione":8414,"ĠCivil":8415,"ĠFore":8416,"Ġrural":8417,"Ġshel":8418,"asses":8419,"erek":8420,"Ġhorrors":8421,"Ġabsorb":8422,"useum":8423,"Ġbuilds":8424,"urious":8425,"Ġprisoners":8426,"ĠMurray":8427,"ĠWallace":8428,"Ġlogical":8429,"ĠGothic":8430,"box":8431,"paced":8432,"Ġwest":8433,"Ġfired":8434,"Ġdire":8435,"Ġnut":8436,"Ġbeats":8437,"ĠSub":8438,"ameless":8439,"race":8440,"ĠCatholic":8441,"Ġramp":8442,"ĠJake":8443,"ĠEX":8444,"ĠReal":8445,"Ġcorpse":8446,"oubted":8447,"Ġpicking":8448,"Ġdevoid":8449,"Ġsuperbly":8450,"Ġblend":8451,"Ġmetaphor":8452,"Ġastonishing":8453,"ĠAltman":8454,"ĠCusack":8455,"love":8456,"maybe":8457,"ration":8458,"Ġsen":8459,"Ġsill":8460,"Ġfed":8461,"Ġcere":8462,"Ġdict":8463,"Ġgift":8464,"ĠTot":8465,"aye":8466,"ĠMed":8467,"istan":8468,"ĠField":8469,"Ġsport":8470,"Ġflu":8471,"Ġscripted":8472,"icularly":8473,"gger":8474,"ĠDev":8475,"ĠUncle":8476,"ĠStreep":8477,"Ġinvestigate":8478,"opsis":8479,"Ġgradu":8480,"ĠNEVER":8481,"ĠVampire":8482,"cont":8483,"iors":8484,"put":8485,"sl":8486,"Ġsam":8487,"Ġheight":8488,"ooge":8489,"ĠAcc":8490,"aks":8491,"ortal":8492,"ĠEle":8493,"force":8494,"Ġspooky":8495,"ĠVideo":8496,"Ġdifferences":8497,"Ġglory":8498,"ĠManh":8499,"Ġprede":8500,"Ġmorality":8501,"Ġtechnically":8502,"incoln":8503,"Ġslightest":8504,"Ġlabor":8505,"Ġimplausible":8506,"ACK":8507,"Ġunwatchable":8508,"ĠLawrence":8509,"Ġingen":8510,"Ġprostitute":8511,"ĠBrando":8512,"Ġexaggerated":8513,"Ġpseudo":8514,"Ġaforementioned":8515,"Ġward":8516,"Ġdre":8517,"Ġduty":8518,"ications":8519,"ĠDown":8520,"ĠPo":8521,"Ġdear":8522,"ĠFOR":8523,"ĠFoster":8524,"ĠHey":8525,"Ġwhereas":8526,"ĠShep":8527,"Ġmaint":8528,"ĠSeason":8529,"ĠBlake":8530,"Ġassault":8531,"eyed":8532,"Ġerrors":8533,"ĠAngela":8534,"Ġdefend":8535,"ĠNevertheless":8536,"ĠONE":8537,"ĠCampbell":8538,"Ġinstallment":8539,"Fr":8540,"SPOILERS":8541,"Tit":8542,"ses":8543,"ĠIron":8544,"ĠImp":8545,"Ġnerv":8546,"aled":8547,"Ġreached":8548,"ĠAw":8549,"keys":8550,"Ġdoz":8551,"ĠFonda":8552,"Ġoffering":8553,"Ġgrasp":8554,"Ġtracks":8555,"Ġdistant":8556,"ĠUnion":8557,"ATCH":8558,"balls":8559,"Ġimproved":8560,"Ġlabel":8561,"Ġlifetime":8562,"Ġconversations":8563,"Ġstinker":8564,"Ġproceedings":8565,"Ġticket":8566,"ĠArgento":8567,"Ġremoved":8568,"redictable":8569,"Ġruthless":8570,"Ex":8571,"OST":8572,"ya":8573,"Ġwave":8574,"Ġbust":8575,"Ġpatter":8576,"Ġinher":8577,"Ġstole":8578,"ĠDays":8579,"ĠRoss":8580,"ĠFiction":8581,"Ġmeasure":8582,"Ġnoise":8583,"eller":8584,"Ġprejud":8585,"izz":8586,"Ġkidding":8587,"Ġconclud":8588,"Ġsadness":8589,"Ġpopcorn":8590,"Ġdiscovery":8591,"Ġsigns":8592,"Ġrequire":8593,"Ġdrunken":8594,"ĠTechn":8595,"Ġbenefit":8596,"rehensible":8597,"dra":8598,"zel":8599,"Ġsons":8600,"ĠIra":8601,"ĠAW":8602,"Ġasse":8603,"uristic":8604,"Ġnotes":8605,"ĠCour":8606,"ĠLang":8607,"ĠNavy":8608,"Ġunre":8609,"Ġ192":8610,"Ġhumili":8611,"astern":8612,"Ġheroic":8613,"Ġgroups":8614,"Ġdevoted":8615,"Ġmarks":8616,"Ġscientific":8617,"Ġofficers":8618,"ĠMadonna":8619,"ĠSpecial":8620,"ffee":8621,"ĠCassave":8622,"Ġisolated":8623,"Ġstrictly":8624,"Sec":8625,"town":8626,"ĠâĢ":8627,"Ġhunting":8628,"Ġshoes":8629,"ĠRather":8630,"ĠFel":8631,"aph":8632,"Ġpretend":8633,"Ġdisli":8634,"Ġdisease":8635,"Ġdialogues":8636,"ortunately":8637,"Ġheaded":8638,"Ġtales":8639,"grade":8640,"Ġtransport":8641,"Ġillustr":8642,"ĠNeil":8643,"Ġtrend":8644,"ĠTracy":8645,"Ġtraveling":8646,"Ġoccurred":8647,"Ġtorment":8648,"Ġdedicated":8649,"Ġoverlooked":8650,"Ġpredecess":8651,"Night":8652,"dri":8653,"fight":8654,"wl":8655,"Ġcroc":8656,"oning":8657,"Ġbefriend":8658,"ĠTalk":8659,"sex":8660,"ĠCase":8661,"Ġvicious":8662,"ĠGabr":8663,"Ġgoodness":8664,"Ġclosed":8665,"Ġpoison":8666,"Ġbridge":8667,"ahl":8668,"ĠForce":8669,"ĠClaire":8670,"Ġmovements":8671,"Ġunfair":8672,"afia":8673,"Ġcurrently":8674,"Ġjuvenile":8675,"ĠLucas":8676,"Ġlyrics":8677,"\"-":8678,"Most":8679,"OS":8680,"nest":8681,"Ġmixture":8682,"ancing":8683,"Ġpir":8684,"aris":8685,"ilarly":8686,"Ġbew":8687,"ĠBol":8688,"ĠBoll":8689,"ĠBates":8690,"ĠCre":8691,"Ġshirt":8692,"umsy":8693,"ĠKat":8694,"Ġspare":8695,"obic":8696,"Ġtrio":8697,"ovich":8698,"Ġsidekick":8699,"Ġopinions":8700,"ĠGrade":8701,"Ġdisturbed":8702,"Ġinfluenced":8703,"ĠDorothy":8704,"enes":8705,"Ġtool":8706,"Ġlit":8707,"Ġstaged":8708,"terday":8709,"agn":8710,"ĠLots":8711,"Ġagents":8712,"Ġconserv":8713,"Ġcollabor":8714,"Ġadmitted":8715,"Ġwinds":8716,"Ġrecognition":8717,"Ġconventional":8718,"Ġintrigue":8719,"ĠDragon":8720,"Ġgradually":8721,"Ġinhabit":8722,"Ġaltogether":8723,"ĠGriffith":8724,"Ġdignity":8725,"Ġelaborate":8726,"Watch":8727,"watch":8728,"atures":8729,"Ġgimm":8730,"Ġreh":8731,"ĠBach":8732,"ĠMo":8733,"ĠCandy":8734,"ĠHood":8735,"ularly":8736,"emies":8737,"ĠLow":8738,"ĠLincoln":8739,"Ġconvol":8740,"Ġoverdone":8741,"Ġroot":8742,"Ġblank":8743,"Ġdecisions":8744,"ocative":8745,"Ġindul":8746,"Ġcommented":8747,"Ġstaying":8748,"ĠAmanda":8749,"Ġprimarily":8750,"ĠSilver":8751,"ĠSwedish":8752,"Ġunbearable":8753,"Ġmesmer":8754,"Ke":8755,"Ġwont":8756,"Ġhun":8757,"Ġhunter":8758,"Ġpunk":8759,"ima":8760,"ĠBook":8761,"emark":8762,"Ġdoors":8763,"ĠGarb":8764,"Ġsloppy":8765,"Ġharder":8766,"Ġgeneric":8767,"Ġsteam":8768,"Ġrecorded":8769,"Ġterrorist":8770,"Ġintrigued":8771,"Ġorders":8772,"Ġhatred":8773,"ĠSyd":8774,"ĠTodd":8775,"ĠLOVE":8776,"Pe":8777,"ket":8778,"Ġpitch":8779,"Ġinject":8780,"alo":8781,"ĠMun":8782,"olves":8783,"ĠNed":8784,"ĠNorm":8785,"Ġperformer":8786,"Ġracial":8787,"Ġrelies":8788,"ĠBeck":8789,"Ġbrains":8790,"iko":8791,"Ġmotives":8792,"Ġmurderous":8793,"ĠFrankie":8794,"Ġcurse":8795,"Ġscreams":8796,"Ġthreatening":8797,"Ġduo":8798,"Ġreduced":8799,"Ġrubber":8800,"Ġthroat":8801,"ĠPlanet":8802,"See":8803,"des":8804,"mail":8805,"pin":8806,"Ã¡":8807,"Ġack":8808,"Ġought":8809,"oric":8810,"oup":8811,"ouch":8812,"Ġinapp":8813,"ĠABC":8814,"ĠSen":8815,"aman":8816,"ĠBrend":8817,"unior":8818,"eland":8819,"ĠPred":8820,"ĠRaj":8821,"orton":8822,"Ġcliff":8823,"Ġsett":8824,"onson":8825,"Ġhardcore":8826,"idering":8827,"Ġpopulation":8828,"Ġsecrets":8829,"Ġgrandmother":8830,"ĠExcellent":8831,"Ġrecognized":8832,"related":8833,"Ġbullet":8834,"Black":8835,"ĠArab":8836,"oubtedly":8837,"Ġsales":8838,"itched":8839,"Ġcure":8840,"Ġreaches":8841,"ghan":8842,"Ġdoomed":8843,"ĠRub":8844,"ĠLen":8845,"ĠLake":8846,"ĠGil":8847,"resp":8848,"ĠEri":8849,"never":8850,"Ġrocks":8851,"Ġafterwards":8852,"Ġgenres":8853,"Ġinsert":8854,"ĠBrook":8855,"Ġcoffee":8856,"Ġartific":8857,"ĠUnless":8858,"olutely":8859,"ĠClub":8860,"Ġtitled":8861,"Ġsadd":8862,"Ġnarrator":8863,"Still":8864,"Ġsubtlety":8865,"ĠCraig":8866,"ĠGlenn":8867,"Ġfrag":8868,"Ġfrustrating":8869,"Ġarrested":8870,"Ġencoura":8871,"ĠNatal":8872,"Ġparallel":8873,"ĠCinderella":8874,"Ġnewspaper":8875,"Act":8876,"Ġtie":8877,"Ġfro":8878,"Ġfoul":8879,"Ġbog":8880,"itled":8881,"Ġho":8882,"Ġpubl":8883,"stars":8884,"ĠTob":8885,"Ġstro":8886,"ĠMann":8887,"Ġnotably":8888,"Ġnotorious":8889,"ĠHust":8890,"ĠHunt":8891,"Ġkitchen":8892,"Ġplanned":8893,"ĠPoint":8894,"ĠJu":8895,"inder":8896,"Ġnoble":8897,"Ġaging":8898,"Ġproducing":8899,"Ġcoherent":8900,"Ġabsence":8901,"Ġmisses":8902,"ĠSpike":8903,"Ġdarker":8904,"Ġsuspic":8905,"Ġpolitically":8906,"Ġexisted":8907,"ĠMonster":8908,"ĠImagine":8909,"Ġsacrific":8910,"Ġdistracting":8911,"Ġsimplistic":8912,"Ġcaptivating":8913,"ĠMassacre":8914,"Ġarrogant":8915,"works":8916,"Ġlifestyle":8917,"Ġacknow":8918,"Com":8919,"every":8920,"vity":8921,"Ġwrap":8922,"Ġbin":8923,"itual":8924,"Ġcards":8925,"Ġpants":8926,"entin":8927,"ĠDill":8928,"ĠJeremy":8929,"elli":8930,"Ġpasses":8931,"Ġsatir":8932,"ika":8933,"Ġpsychotic":8934,"Ġodds":8935,"Ġsilver":8936,"Ġstrike":8937,"ĠQuinn":8938,"Ġstereotype":8939,"Ġexplaining":8940,"Ġmodels":8941,"Ġunbelievably":8942,"Ġclothing":8943,"Ġdigital":8944,"ĠDuke":8945,"Ġphilosophy":8946,"Ġinventive":8947,"Ġenormous":8948,"Ġillegal":8949,"HING":8950,"aith":8951,"Ġax":8952,"Ġsag":8953,"Ġcup":8954,"eder":8955,"verty":8956,"ĠSqu":8957,"rip":8958,"ĠDerek":8959,"estic":8960,"ĠNice":8961,"Ġtrade":8962,"Ġpoverty":8963,"Ġfuneral":8964,"Ġslim":8965,"Ġincest":8966,"Ġacclaim":8967,"ĠBranagh":8968,"ĠShir":8969,"Ġhanded":8970,"Ġimagined":8971,"ĠBlock":8972,"ĠSpring":8973,"ĠMario":8974,"comp":8975,"shot":8976,"Ġunfolds":8977,"Ġestablish":8978,"Ġsucceeded":8979,"ĠEVERY":8980,"Ġsolely":8981,"Ġcameras":8982,"Ġpsychiatrist":8983,"Ġconspiracy":8984,"Ġconvoluted":8985,"Ge":8986,"makers":8987,"esis":8988,"otte":8989,"ĠTal":8990,"Ġnotion":8991,"Ġchances":8992,"isten":8993,"icking":8994,"Ġclumsy":8995,"ipment":8996,"Ġapolog":8997,"Ġsmoking":8998,"aneously":8999,"Ġexposed":9000,"Ġgrab":9001,"????":9002,"Ġintroduces":9003,"mares":9004,"ĠJulian":9005,"Ġcatches":9006,"Ġtrademark":9007,"Ġdepicts":9008,"warming":9009,"ĠYears":9010,"Ġdescribes":9011,"ĠSandler":9012,"Ġhighest":9013,"Ġexplosion":9014,"Ġfilth":9015,"Ġbuddies":9016,"Av":9017,"hs":9018,"ril":9019,"Ġfrench":9020,"Ġthief":9021,"Ġlake":9022,"child":9023,"ĠApart":9024,"Ġasp":9025,"irts":9026,"ĠBuck":9027,"ĠBald":9028,"ĠBurns":9029,"ĠDom":9030,"Ġcomics":9031,"ĠFat":9032,"Ġconve":9033,"ciating":9034,"ĠKl":9035,"Ġspaces":9036,"Ġrecru":9037,"Ġdepressed":9038,"Ġhopeless":9039,"Ġprovoking":9040,"ĠGodfather":9041,"Ġclimb":9042,"Ġporno":9043,"Ġwitnessed":9044,"Ġsynopsis":9045,"Ġscheme":9046,"')":9047,"El":9048,"En":9049,"run":9050,"uable":9051,"Ġpays":9052,"Ġdust":9053,"Ġstone":9054,"ĠSummer":9055,"ĠRuth":9056,"andra":9057,"ĠFant":9058,"ĠGrey":9059,"ĠNin":9060,"Ġunsett":9061,"eps":9062,"Ġfactory":9063,"Ġthoughtful":9064,"Ġmonot":9065,"Ġfantas":9066,"ONG":9067,"Ġcountryside":9068,"Ġhonesty":9069,"Ġfatal":9070,"Ġsacrifice":9071,"Ġchoreography":9072,"Ġcabin":9073,"Ġblatant":9074,"Ġpoetry":9075,"Ġchaos":9076,"Ġmontage":9077,"ĠManhattan":9078,"\"...":9079,"Ġ[":9080,"Ġsarc":9081,"Ġwet":9082,"Ġgall":9083,"ĠTR":9084,"ĠSet":9085,"ĠBett":9086,"ĠCD":9087,"Its":9088,"ĠRobb":9089,"Ġmisunder":9090,"Ġpsychopath":9091,"Ġbuildings":9092,"Ġoddly":9093,"Ġsecretary":9094,"Ġamounts":9095,"prov":9096,"ĠCentury":9097,"Ġimmensely":9098,"ĠPrincess":9099,"Ġdozens":9100,"James":9101,"foot":9102,"great":9103,"Ġocean":9104,"Ġfart":9105,"Ġcats":9106,"adget":9107,"ĠMade":9108,"ĠDin":9109,"ĠJord":9110,"ĠGlover":9111,"cience":9112,"Ġclic":9113,"Ġagreed":9114,"aware":9115,"ruciating":9116,"Ġconsistent":9117,"Ġinstant":9118,"Ġcarn":9119,"ĠSex":9120,"Ġneglect":9121,"Ġestate":9122,"ĠBoys":9123,"Ġthankfully":9124,"ĠWhether":9125,"Ġinnovative":9126,"Richard":9127,"PS":9128,"UM":9129,"bow":9130,"Ġ=":9131,"Ġmal":9132,"Ġmaid":9133,"Ġbone":9134,"icient":9135,"Ġnause":9136,"ĠMi":9137,"ĠCong":9138,"ĠHung":9139,"Ġshadows":9140,"agney":9141,"Ġvoy":9142,"Ġups":9143,"Ġimpe":9144,"Ġadoles":9145,"Ġagg":9146,"ctional":9147,"Ġclassical":9148,"Ġexplored":9149,"Ġelim":9150,"ommended":9151,"rossing":9152,"Ġequipment":9153,"Ġdamage":9154,"Ġsatisfied":9155,"Ġbullets":9156,"Ġprimary":9157,"mission":9158,"ĠGirls":9159,"Ġpuppet":9160,"Ġcasual":9161,"Ġwrestling":9162,"ĠTurner":9163,"Ġtires":9164,"isand":9165,"Ġmudd":9166,"oral":9167,"ĠIan":9168,"Ġego":9169,"ĠBush":9170,"ĠPR":9171,"ĠRead":9172,"odge":9173,"Ġenemies":9174,"Ġovert":9175,"Ġshortly":9176,"Ġforms":9177,"Ġsnakes":9178,"Ġconstructed":9179,"Ġruins":9180,"Ġstrikes":9181,"Donald":9182,"ĠHamilton":9183,"Ġblockbuster":9184,"Ġunintentional":9185,"Ġconsistently":9186,"Ġmiserable":9187,"ulsive":9188,"Ġcannibal":9189,"Ġrobbery":9190,"ĠCurtis":9191,"Qu":9192,"Te":9193,"lon":9194,"Ġtame":9195,"verted":9196,"adine":9197,"ĠBUT":9198,"ĠRita":9199,"ĠFX":9200,"cio":9201,"forms":9202,"Ġguitar":9203,"Ġbless":9204,"Ġpray":9205,"Ġmaintain":9206,"Ġ35":9207,"ĠMyers":9208,"Ġcopies":9209,"Ġsmaller":9210,"Ġterrorists":9211,"ĠStrange":9212,"Ġeighties":9213,"Ġdespair":9214,"ĠRemember":9215,"ĠAlfred":9216,"Ġwrapped":9217,"Ġwannabe":9218,"Ġinvisible":9219,"Ġears":9220,"Ġstellar":9221,"ĠBourne":9222,"eling":9223,"olor":9224,"ĠLum":9225,"ĠFalk":9226,"Ġjustify":9227,"Ġagrees":9228,"izations":9229,"ĠViv":9230,"Ġcheating":9231,"Ġrelent":9232,"ggy":9233,"fined":9234,"sycho":9235,"ribute":9236,"ĠDamme":9237,"Ġfinancial":9238,"ĠVegas":9239,"ĠFrost":9240,"ĠGREAT":9241,"iour":9242,"Ġwine":9243,"Ġhates":9244,"ĠBab":9245,"ĠMacy":9246,"ĠMartha":9247,"ĠCox":9248,"ĠWAS":9249,"Ġscores":9250,"Ġexotic":9251,"Ġexhib":9252,"Ġuneven":9253,"Ġworkers":9254,"ĠChase":9255,"ensions":9256,"ĠShaw":9257,"Ġinstr":9258,"Ġglor":9259,"lands":9260,"Ġdetect":9261,"Ġfailing":9262,"Ġconvincingly":9263,"Ġresponsibility":9264,"Ġfooled":9265,"Ġurge":9266,"Ġburning":9267,"Ġdefeat":9268,"Ġarchite":9269,"Ġpurchase":9270,"Ġdynamic":9271,"Ġirrele":9272,"ploitation":9273,"Su":9274,"Too":9275,"burn":9276,"master":9277,"Ġtail":9278,"Ġbes":9279,"Ġpale":9280,"ĠBak":9281,"ĠCertainly":9282,"ĠHack":9283,"Ġjazz":9284,"ĠLin":9285,"ĠEventually":9286,"ighty":9287,"Ġloads":9288,"Ġawe":9289,"Ġgrotes":9290,"Ġsettle":9291,"Ġcomposed":9292,"ĠAside":9293,"Ġmonolog":9294,"Ġhomeless":9295,"okey":9296,"Ġconsiderable":9297,"Ġsimilarities":9298,"Ġillness":9299,"Ġutil":9300,"Ġkicked":9301,"ĠNorris":9302,"ĠEva":9303,"Ġstyles":9304,"Ġteaching":9305,"Ġemphasis":9306,"ĠScarlett":9307,"ĠMiyaz":9308,"Ġwebsite":9309,",,":9310,"Int":9311,"fle":9312,"Ġboun":9313,"Ġinane":9314,"Ġech":9315,"ĠTerry":9316,"Ġrebell":9317,"ĠSay":9318,"ĠSyl":9319,"ĠBand":9320,"ĠHist":9321,"Ġshine":9322,"ĠRE":9323,"Ġunoriginal":9324,"Ġendings":9325,"perfect":9326,"ĠUN":9327,"then":9328,"white":9329,"Ġrooms":9330,"Ġadvise":9331,"Ġexploit":9332,"Ġcrucial":9333,"Ġregardless":9334,"THE":9335,"ĠStevens":9336,"Ġresemblance":9337,"Ġalternative":9338,"Ġbottle":9339,"God":9340,"gle":9341,"gling":9342,"Ġtank":9343,"Ġsouth":9344,"Ġdiamond":9345,"Ġgro":9346,"Ġgest":9347,"leading":9348,"ĠSullivan":9349,"ĠCagney":9350,"ĠDirty":9351,"Ġsuited":9352,"Ġalle":9353,"ĠFall":9354,"ĠGand":9355,"Ġprops":9356,"ĠEp":9357,"Ġshelf":9358,"assed":9359,"Ġresur":9360,"Ġenjoys":9361,"ossibly":9362,"Ġuseful":9363,"Ġexcruciating":9364,"shi":9365,"ivalent":9366,"Ġsurvived":9367,"ĠProfess":9368,"Ġbeneath":9369,"ĠREAL":9370,"ĠNicole":9371,"Ġhence":9372,"ĠInternational":9373,"ĠFlorida":9374,"Ġadequate":9375,"Ġalbum":9376,"Ġnervous":9377,"90":9378,"Ed":9379,"Ġsab":9380,"ĠCold":9381,"pel":9382,"ĠPy":9383,"ĠPam":9384,"Ġintim":9385,"Ġdisplayed":9386,"Ġuser":9387,"Ġblur":9388,"izable":9389,"Ġnevertheless":9390,"ĠStooges":9391,"Ġtrained":9392,"Ġinstit":9393,"oked":9394,"Ġprompt":9395,"Ġsilence":9396,"Ġrecording":9397,"Ġcontrary":9398,"Ġpassionate":9399,"Ġaccompanied":9400,"Ġtransformation":9401,"(..":9402,"llo":9403,"Ġdys":9404,"Ġstabb":9405,"ĠBette":9406,"Ġplausible":9407,"ĠLuck":9408,"about":9409,"ĠKer":9410,"nered":9411,"Ġamuse":9412,"Ġtends":9413,"Ġhorrifying":9414,"ĠStu":9415,"ĠState":9416,"Ġconscious":9417,"ographed":9418,"Ġmentioning":9419,"Ġtransp":9420,"Ġsnake":9421,"Ġcinematographer":9422,"ĠKeith":9423,"Ġspecifically":9424,"ĠMuslim":9425,"Ġvulgar":9426,"ĠChildren":9427,"ĠGarbo":9428,"Ġwig":9429,"Ġfo":9430,"Ġbears":9431,"ĠTimes":9432,"Ġstress":9433,"ĠSong":9434,"ĠSPOILER":9435,"Ġanx":9436,"ĠBus":9437,"ĠMason":9438,"ĠCrow":9439,"ĠWard":9440,"antom":9441,"Ġorchest":9442,"aux":9443,"Ġpartly":9444,"Ġcharacteristic":9445,"Ġdownhill":9446,"Ġcreativity":9447,"annels":9448,"Ġlackl":9449,"Ġpainted":9450,"Ġmasterful":9451,"Ġpotentially":9452,"ĠExcept":9453,"Ġblew":9454,"Ġarrived":9455,"ĠCraw":9456,"ĠAdams":9457,"ĠElli":9458,"Ġoverwhelming":9459,"ĠMargaret":9460,"ifferent":9461,"bidden":9462,"la":9463,"Ġtaught":9464,"Ġsits":9465,"ieve":9466,"ĠAh":9467,"ĠAmy":9468,"ĠSing":9469,"ĠSound":9470,"ĠMount":9471,"ĠHonestly":9472,"Ġexter":9473,"ĠRandy":9474,"Ġouts":9475,"ĠGos":9476,"pled":9477,"Ġcliche":9478,"Ġoverrated":9479,"Ġsubplots":9480,"ĠSheriff":9481,"Ġabsent":9482,"Ġmonkey":9483,"ĠAtt":9484,"Ġdeveloping":9485,"Ġtrees":9486,"Ġbrutally":9487,"ĠStreisand":9488,"Ġpersu":9489,"Ġsplatter":9490,"ĠSeeing":9491,"Ġdisappeared":9492,"Ġhideous":9493,"Ġcompanion":9494,"ĠFrancisco":9495,"Ġdinosaurs":9496,"cult":9497,"wind":9498,"Ġaid":9499,"attered":9500,"Ġlav":9501,"Ġstark":9502,"amber":9503,"amera":9504,"cking":9505,"ĠDoll":9506,"ĠDawn":9507,"Ġje":9508,"antee":9509,"ĠRoche":9510,"izard":9511,"Ġcheated":9512,"Ġhelpless":9513,"Ġportion":9514,"umentary":9515,"Ġfocusing":9516,"Ġprogresses":9517,"Ġdrops":9518,"ĠRadio":9519,"Ġdivorce":9520,"ĠAtlant":9521,"Ġphilosophical":9522,"La":9523,"free":9524,"rome":9525,"ori":9526,"Ġstaring":9527,"ceived":9528,"ĠWid":9529,"ĠPick":9530,"ĠOper":9531,"ĠKr":9532,"tends":9533,"Ġdirects":9534,"Ġparties":9535,"Ġtea":9536,"Ġunderlying":9537,"Ġclasses":9538,"Ġdistingu":9539,"Ġguessed":9540,"Ġparan":9541,"ARD":9542,"Ġcampa":9543,"Ġwrites":9544,"Ġunsatisf":9545,"ropriately":9546,"ĠHamlet":9547,"worthy":9548,"Ġhench":9549,"ĠNicholson":9550,"Ġnostalgia":9551,"Ġdeliberately":9552,"Ġcitizens":9553,"ĠCassavetes":9554,"ĠShirley":9555,"\"!":9556,"40":9557,"High":9558,"funny":9559,"oured":9560,"Ġhouses":9561,"Ġdating":9562,"Ġease":9563,"ĠAge":9564,"Ġchased":9565,"Ġdoct":9566,"ĠGre":9567,"ĠGib":9568,"Ġleague":9569,"Ġprec":9570,"Ġadorable":9571,"Ġflies":9572,"Ġcontained":9573,"everal":9574,"ivable":9575,"Ġresort":9576,"Ġcouples":9577,"Ġstrang":9578,"ksh":9579,"owski":9580,"Ġreflection":9581,"ĠDavies":9582,"Ġhilariously":9583,"Ġ2004":9584,"Ġpriv":9585,"headed":9586,"club":9587,"ĠGraham":9588,"spector":9589,"Ġastron":9590,"Ġtroubles":9591,"ĠCarrie":9592,"Ġadvertising":9593,"Ġglasses":9594,"Ġjournalist":9595,"Ġabysmal":9596,"Ġingredients":9597,"ĠMiyazaki":9598,"gate":9599,"Ġwished":9600,"atics":9601,"Ġthumbs":9602,"ĠTry":9603,"Ġheat":9604,"ooby":9605,"urance":9606,"Ġshake":9607,"pered":9608,"ĠRating":9609,"Ġintr":9610,"ĠNiro":9611,"Ġupl":9612,"Ġblowing":9613,"Ġdesired":9614,"ĠUnt":9615,"onto":9616,"Ġinterrupt":9617,"Ġtreats":9618,"Ġillogical":9619,"Ġgangsters":9620,"ĠTroma":9621,"ĠProt":9622,"ĠQuite":9623,"Ġpractice":9624,"ĠYear":9625,"ĠGarfield":9626,"Ġunderstated":9627,"Ġformulaic":9628,"Ġproceeds":9629,"Ġearned":9630,"Ġguests":9631,"Ġliberal":9632,"Ġhelicopter":9633,"Ġirrelevant":9634,"..<":9635,"fu":9636,"faced":9637,"Ġtad":9638,"Ġsust":9639,"Ġsouthern":9640,"rer":9641,"Ġwore":9642,"eric":9643,"Ġegg":9644,"Ġstir":9645,"Ġstilted":9646,"ĠSP":9647,"ĠCuster":9648,"Ġchannels":9649,"ĠOd":9650,"Ġseeks":9651,"Ġendure":9652,"Ġpretending":9653,"ĠUltim":9654,"phant":9655,"eryl":9656,"ĠMystery":9657,"ugust":9658,"ĠMcK":9659,"ĠJustin":9660,"Ġmountains":9661,"Ġtranslation":9662,"Ġeducation":9663,"Ġfundament":9664,"Ġexchange":9665,"Ġvibr":9666,"Ġriveting":9667,"AST":9668,"bird":9669,"name":9670,"yll":9671,"rell":9672,"icism":9673,"Ġwhim":9674,"ĠMiles":9675,"thriller":9676,"Ġarc":9677,"acies":9678,"Ġpoetic":9679,"ĠSheen":9680,"Ġnightmares":9681,"Ġsuggested":9682,"Ġconditions":9683,"ylan":9684,"Ġsuitable":9685,"ĠRobinson":9686,"Ġpuppets":9687,"Ġprincipal":9688,"Ġrendition":9689,"Ġunsettling":9690,"99":9691,"Che":9692,"Ġwow":9693,"Ġfought":9694,"Ġfighter":9695,"Ġya":9696,"ĠMTV":9697,"ĠHop":9698,"esty":9699,"oples":9700,"ousing":9701,"andon":9702,"Ġram":9703,"Ġintimate":9704,"ĠGore":9705,"ĠGiven":9706,"anges":9707,"Ġattitudes":9708,"Ġsincere":9709,"Ġschlock":9710,"ierre":9711,"ricia":9712,"ĠEdgar":9713,"ĠPerry":9714,"Ġrolled":9715,"ĠSTAR":9716,"Ġmatches":9717,"conscious":9718,"Ġguarantee":9719,"ĠBaldwin":9720,"human":9721,"Ġsung":9722,"Ġwis":9723,"Ġce":9724,"Ġpad":9725,"Ġdivers":9726,"ĠBuster":9727,"Ġlip":9728,"ĠHills":9729,"Ġplat":9730,"Ġalter":9731,"quel":9732,"ĠExt":9733,"Ġtrashy":9734,"arson":9735,"lik":9736,"ĠBronson":9737,"ĠDeep":9738,"Ġalongside":9739,"ĠMarc":9740,"Ġpatients":9741,"193":9742,"Ġinferior":9743,"Ġsleaze":9744,"ĠNOTHING":9745,"Ġundoubtedly":9746,"Ġembarrassment":9747,"strong":9748,"ĠWatson":9749,"Ġfrustration":9750,"ĠKarloff":9751,"Ġborrowed":9752,"ĠHuston":9753,"ĠCrawford":9754,",<":9755,"Dan":9756,"IP":9757,"lan":9758,"pre":9759,"was":9760,"Ġ_":9761,"Ġow":9762,"isons":9763,"Ġmile":9764,"ĠTown":9765,"Ġreck":9766,"Ġyelling":9767,"ĠAbb":9768,"ĠMas":9769,"ĠMah":9770,"arts":9771,"ĠFinal":9772,"Ġrecyc":9773,"Ġlaughably":9774,"Ġphrase":9775,"ĠSpir":9776,"ORE":9777,"ĠElvis":9778,"Ġavoided":9779,"Ġprisoner":9780,"ĠBrazil":9781,"Ġdrawing":9782,"Ġjoined":9783,"Ġcorruption":9784,"ĠCarradine":9785,"ĠCastle":9786,"Ġwounded":9787,"Spe":9788,"both":9789,"pion":9790,"Ġlun":9791,"Ġforty":9792,"ĠAff":9793,"ĠSouthern":9794,"ĠBa":9795,"ĠBible":9796,"Ġlips":9797,"ĠWalt":9798,"ĠPin":9799,"Ġritual":9800,"ĠNobody":9801,"Ġmankind":9802,"ĠKap":9803,"arer":9804,"ffic":9805,"Ġremained":9806,"ĠShort":9807,"ĠScream":9808,"venture":9809,"Ġpromises":9810,"Ġweakest":9811,"ompson":9812,"ĠPrice":9813,"ĠWoods":9814,"Ġcontrad":9815,"ĠCorman":9816,"Ġmarketing":9817,"Ġoptim":9818,"Ġrevolutionary":9819,"Ġconceived":9820,"ĠTyler":9821,"ĠThroughout":9822,"ĠLemmon":9823,"Ġinappropriate":9824,"Ġgrotesque":9825,"SPOILER":9826,"hile":9827,"lam":9828,"Ġtopless":9829,"ala":9830,"ĠTam":9831,"ĠSupp":9832,"ĠBow":9833,"ĠLine":9834,"ĠLOT":9835,"ĠEli":9836,"ĠOp":9837,"ĠKn":9838,"aping":9839,"Ġadul":9840,"Ġrage":9841,"Ġcompens":9842,"Ġcomparing":9843,"Ġpossibilities":9844,"uffy":9845,"ĠScot":9846,"ĠMarion":9847,"ypse":9848,"ysis":9849,"Ġtrailers":9850,"Ġdimensional":9851,"ĠDoug":9852,"Ġcontempl":9853,"Ġhints":9854,"Ġmotivations":9855,"ĠRoad":9856,"Ġensues":9857,"Ġchallenging":9858,"Ġninja":9859,"ocalypse":9860,"ĠWorst":9861,"hetti":9862,"charact":9863,"ĠFelix":9864,"House":9865,"Hey":9866,"Or":9867,"fan":9868,"maker":9869,"iners":9870,"Ġmund":9871,"idy":9872,"ĠBased":9873,"ĠHan":9874,"agues":9875,"astically":9876,"ĠJoy":9877,"ĠAli":9878,"Ġcoast":9879,"ĠSpain":9880,"Ġlowest":9881,"Ġbehave":9882,"Ġcapturing":9883,"Ġbackgrounds":9884,"Ġcondem":9885,"Ġremarkably":9886,"THING":9887,"Ġbeliefs":9888,"plicity":9889,"ixties":9890,"Ġincompetent":9891,"ĠIraq":9892,"Ġ{":9893,"Ġtact":9894,"Ġsappy":9895,"Ġdile":9896,"imagin":9897,"ĠAuss":9898,"urai":9899,"ersh":9900,"ĠDaw":9901,"ĠDomin":9902,"Ġexquis":9903,"Ġplod":9904,"ĠLive":9905,"ĠFortunately":9906,"ĠThompson":9907,"ellig":9908,"obs":9909,"ĠVar":9910,"Ġslave":9911,"Ġtripe":9912,"Ġworlds":9913,"Ġtransition":9914,"ĠIsab":9915,"Ġsenses":9916,"Ġpurposes":9917,"Ġclosest":9918,"Ġdesperation":9919,"Ġlegit":9920,"Ġlegal":9921,"Ġ*****":9922,"Ġwarmth":9923,"Ġfrequent":9924,"ĠWaters":9925,"ĠInterest":9926,"Ġcustom":9927,"Ġsurvivors":9928,"Ġjewel":9929,"Second":9930,")...":9931,"Dr":9932,"born":9933,"break":9934,"orse":9935,"Ġpushing":9936,"ĠMiddle":9937,"ĠCa":9938,"ĠHoll":9939,"ĠWAR":9940,"ifi":9941,"Ġalas":9942,"ĠLar":9943,"Ġoutfit":9944,"Ġconvent":9945,"ints":9946,"Ġflop":9947,"!!<":9948,"!!!<":9949,"Ġpride":9950,"Ġcheek":9951,"Ġnewly":9952,"Ġrelation":9953,"Ġunderstandable":9954,"Ġwaited":9955,"Ġpops":9956,"ĠGranted":9957,"ĠPlot":9958,"check":9959,"engers":9960,"Ġauthority":9961,"Ġbuffs":9962,"Ġhypnot":9963,"Ġicon":9964,"ĠBoris":9965,"ĠCommun":9966,"Ġfloating":9967,"Ġreunion":9968,"Ġnomination":9969,"Ġbonus":9970,"Ġartificial":9971,"ALL":9972,"creen":9973,"len":9974,"will":9975,"Ġfaster":9976,"Ġpub":9977,"arity":9978,"Ġgh":9979,"Ġren":9980,"sect":9981,"ĠSN":9982,"ĠHalf":9983,"essa":9984,"ĠRO":9985,"Ġspoke":9986,"Ġawhile":9987,"Ġsimult":9988,"Ġviewings":9989,"Ġtravest":9990,"Ġbuck":9991,"Ġcareful":9992,"Ġgloss":9993,"ĠNewman":9994,"ATE":9995,"Ġsolution":9996,"Ġphoto":9997,"Ġpopularity":9998,"Ġunexpl":9999,"Ġbehaviour":10000,"ĠJews":10001,"ĠValent":10002,"Ġcandid":10003,"Ġvulnerable":10004,"Ġpresumably":10005,"Ġdysfun":10006,"Ang":10007,"Look":10008,"Ġbanned":10009,"itable":10010,"Ġthugs":10011,"iceless":10012,"ripp":10013,"ĠMorm":10014,"ĠCart":10015,"ifully":10016,"Ġdism":10017,"Ġflood":10018,"ensical":10019,"Ġinstinct":10020,"ixon":10021,"Ġrefuge":10022,"ĠHarvey":10023,"Ġ2007":10024,"Ġclaimed":10025,"Ġhyper":10026,"ĠJeffrey":10027,"Ġfaults":10028,"Ġeaten":10029,"Ġminimum":10030,"Ġpurchased":10031,"Ġswimming":10032,"Ġnostalgic":10033,"ĠReturn":10034,"Ġincorpor":10035,"Ġhesit":10036,"Ġassemb":10037,"Great":10038,"hum":10039,"Ġaka":10040,"Ġcode":10041,"oto":10042,"stage":10043,"ayed":10044,"ĠActor":10045,"ĠBay":10046,"unts":10047,"Ġintric":10048,"Ġconqu":10049,"Ġshowcase":10050,"Ġgranted":10051,"Ġtribe":10052,"Ġpersons":10053,"Ġglim":10054,"ĠLeigh":10055,"Ġequivalent":10056,"Ġappreciation":10057,"Ġclimactic":10058,"Ġundert":10059,"overn":10060,"Ġyesterday":10061,"Ġdepicting":10062,"ĠCraven":10063,"ĠKids":10064,"Ġcomposer":10065,"oneliness":10066,"Ġvaguely":10067,"austroph":10068,"ĠBullock":10069,"ĠPhillip":10070,"Perhaps":10071,"Ġdreary":10072,"ĠPredator":10073,"Ġcampaign":10074,"big":10075,"based":10076,"da":10077,"dis":10078,"mill":10079,"make":10080,"Ã¨":10081,"Ġaest":10082,"Ġwars":10083,"Ġwishing":10084,"Ġbumbling":10085,"Ġcens":10086,"esc":10087,"Ġdirt":10088,"Ġindu":10089,"ilight":10090,"Ġmode":10091,"Ġrein":10092,"ĠMY":10093,"ĠCode":10094,"ĠWomen":10095,"Ġath":10096,"ĠDON":10097,"Ġscope":10098,"Ġdod":10099,"Ġvig":10100,"ĠPur":10101,"Ġgreatness":10102,"Ġfunction":10103,"awful":10104,"ccer":10105,"ionship":10106,"Ġperforms":10107,"ĠAss":10108,"Ġsuperhero":10109,"annon":10110,"ĠBlade":10111,"Ġpassable":10112,"shine":10113,"Ġengage":10114,"Ġcurs":10115,"ĠHammer":10116,"Ġcorrectly":10117,"iseries":10118,"Ġpitiful":10119,"Ġseventies":10120,"Ġsafety":10121,"15":10122,"Ph":10123,"bet":10124,"fly":10125,"front":10126,"gers":10127,"rin":10128,"uated":10129,"yre":10130,"Ġapt":10131,"Ġcake":10132,"ctic":10133,"Ġwhis":10134,"cha":10135,"Ġshod":10136,"ĠDiv":10137,"ĠLy":10138,"Ġcancer":10139,"Ġarmed":10140,"Ġpriceless":10141,"Ġrabb":10142,"Ġmusicians":10143,"asha":10144,"Ġreads":10145,"ĠBeyond":10146,"Ġversus":10147,"Ġphony":10148,"ĠScr":10149,"ĠChristie":10150,"Ġwinter":10151,"Ġfuturistic":10152,"Ġlands":10153,"Ġcleverly":10154,"ervice":10155,"Ġhistorically":10156,"Ġbedroom":10157,"Ġarrival":10158,"ĠIran":10159,"Ġdefense":10160,"Ġfoolish":10161,"Ġsubstit":10162,"ĠPictures":10163,"Ġsevere":10164,"Ġignorant":10165,"ĠNYC":10166,"Ġexecutive":10167,"Ġelegant":10168,"ĠMarshall":10169,"ĠJordan":10170,"Ġtiresome":10171,"Ġbaff":10172,"robe":10173,"ĠBark":10174,"ĠWel":10175,"acts":10176,"ested":10177,"ĠRings":10178,"Ġworn":10179,"ĠFish":10180,"Ġnep":10181,"Ġrul":10182,"inding":10183,"acks":10184,"ookie":10185,"icker":10186,"Ġthru":10187,"Ġteaches":10188,"pecting":10189,"ĠVo":10190,"Ġminiseries":10191,"ramer":10192,"attering":10193,"ĠSpock":10194,"Ġreport":10195,"Ġrefused":10196,"ĠWarren":10197,"volution":10198,"Ġintroduce":10199,"ettes":10200,"Ġjudging":10201,"haust":10202,"ĠBarney":10203,"ĠFoxx":10204,"anoia":10205,"Ġtunes":10206,"ĠCharlotte":10207,"ĠLatin":10208,"Two":10209,"Ġgifted":10210,"Please":10211,"fast":10212,"numb":10213,"vation":10214,"Ġ....":10215,"Ġaunt":10216,"Ġfacing":10217,"Ġmouse":10218,"Ġmuseum":10219,"Ġcos":10220,"ĠAM":10221,"ldom":10222,"rob":10223,"again":10224,"ĠFive":10225,"Ġrude":10226,"ference":10227,"ĠEither":10228,"ĠKaz":10229,"acity":10230,"acles":10231,"Ġsurg":10232,"ocaust":10233,"Ġrelatives":10234,"Ġleaders":10235,"retched":10236,"ĠDee":10237,"ĠMcD":10238,"Ġpatience":10239,"Ġ1999":10240,"ĠNightmare":10241,"udden":10242,"ĠSeries":10243,"ĠAnnie":10244,"ĠErnest":10245,"Death":10246,"Ġincomprehensible":10247,"ĠBeautiful":10248,"ĠVenice":10249,"ĠCharacters":10250,".(":10251,"Ġponder":10252,"ĠAugust":10253,"ĠSold":10254,"Ġsched":10255,"aghetti":10256,"ĠRud":10257,"ĠGus":10258,"ĠGOOD":10259,"ĠNathan":10260,"ĠKh":10261,"ourney":10262,"apers":10263,"ĠStars":10264,"Ġlasted":10265,"ĠSeven":10266,"Ġsenseless":10267,"Ġsecondary":10268,"Ġdefined":10269,"Ġgenerations":10270,"Ġindic":10271,"Ġvaluable":10272,"Ġadaptations":10273,"Ġtastes":10274,"ĠProject":10275,"Ġwildly":10276,"Once":10277,"Arthur":10278,"ĠUsually":10279,"Ġwandering":10280,"Ġcorporate":10281,"Ġunhappy":10282,"provoking":10283,"bu":10284,"hist":10285,"mun":10286,"occ":10287,"Ġties":10288,"Ġori":10289,"Ġbang":10290,"Ġloneliness":10291,"Ġbell":10292,"Ġrely":10293,"ĠSnow":10294,"ĠCool":10295,"ĠWag":10296,"ĠPay":10297,"inds":10298,"Ġprol":10299,"Ġawake":10300,"issy":10301,"Ġglorious":10302,"Ġexpressed":10303,"INE":10304,"ĠHarold":10305,"Ġsuspicious":10306,"Ġpromised":10307,"Ġdancers":10308,"Ġsatisfy":10309,"ĠJesse":10310,"ĠRomero":10311,"Ġpressure":10312,"Ġintegrity":10313,"ĠAbsolutely":10314,"Ġmundane":10315,"HH":10316,"did":10317,"oad":10318,"sur":10319,"vial":10320,"Ġfi":10321,"Ġmax":10322,"Ġlam":10323,"ĠMake":10324,"ĠWorth":10325,"ĠPan":10326,"ĠPink":10327,"ĠRanger":10328,"Ġrush":10329,"ĠThus":10330,"ĠNov":10331,"ĠEis":10332,"odile":10333,"Ġoveracting":10334,"Ġpartners":10335,"Ġflag":10336,"Ġraises":10337,"Ġsounding":10338,"developed":10339,"Ġacid":10340,"Ġskate":10341,"amped":10342,"ĠWells":10343,"ĠMcL":10344,"Ġconstruction":10345,"ĠMeg":10346,"Ġangst":10347,"ĠConf":10348,"OUS":10349,"Ġunden":10350,"Ġrocket":10351,"Ġproperty":10352,"ĠEnjoy":10353,"Ġrepresented":10354,"ĠMurder":10355,"Ġdimension":10356,"Ġalcoholic":10357,"Ġrotten":10358,"ĠNolan":10359,"Brazil":10360,"Ġglobal":10361,"Ġtravesty":10362,"His":10363,"IST":10364,"Peter":10365,"har":10366,"Ġwarr":10367,"Ġmate":10368,"Ġcul":10369,"ench":10370,"ĠSeveral":10371,"ĠTheater":10372,"ĠBal":10373,"Ġshameless":10374,"ĠLone":10375,"ĠKent":10376,"Ġclaustroph":10377,"Ġprev":10378,"enson":10379,"upert":10380,"Ġ3000":10381,"ollowing":10382,"Ġglamor":10383,"ainsaw":10384,"Ġheartbreaking":10385,"ushi":10386,"ĠNeither":10387,"Ġlimits":10388,"ĠQuaid":10389,"Ġcompelled":10390,"Ġexceptionally":10391,"innie":10392,"Ġdiscovering":10393,"Ġstinks":10394,"Ġnerd":10395,"Ġeducational":10396,"Ġmethods":10397,"William":10398,"12":10399,"gom":10400,"po":10401,"pol":10402,"talk":10403,"hears":10404,"Ġwax":10405,"Ġloos":10406,"ĠSab":10407,"ĠBR":10408,"ĠWI":10409,"ĠDutch":10410,"ĠDylan":10411,"Ġcommend":10412,"ĠLiz":10413,"ĠGere":10414,"Ġmeand":10415,"ĠOrigin":10416,"Ġtroops":10417,"Ġreson":10418,"ission":10419,"lied":10420,"rilliant":10421,"ĠShame":10422,"Ġromp":10423,"Ġresulting":10424,"Ġ2003":10425,"Ġcomplaining":10426,"Ġchecked":10427,"Ġliterature":10428,"ĠScottish":10429,"Ġreceives":10430,"Ġdisgrace":10431,"Ġpackage":10432,"Ġdisappears":10433,"ĠSpacey":10434,"Ġhurts":10435,"Ġapplaud":10436,"ĠSkip":10437,"Ġethnic":10438,"Ġdisliked":10439,"Go":10440,"UE":10441,"uz":10442,"zing":10443,"Ã¶":10444,"iti":10445,"Ġdances":10446,"Ġreel":10447,"ĠAbr":10448,"ĠSave":10449,"Ġanaly":10450,"rock":10451,"rien":10452,"ĠBugs":10453,"ĠDuck":10454,"Ġjer":10455,"Ġjaw":10456,"ession":10457,"ĠPie":10458,"ĠRitter":10459,"Ġorphan":10460,"ĠJune":10461,"Ġunit":10462,"These":10463,"Ġenlight":10464,"Ġquit":10465,"Ġdish":10466,"Ġworker":10467,"angel":10468,"Ġtrivial":10469,"ĠSea":10470,"annah":10471,"ĠForget":10472,"Ġreleases":10473,"Ġmenace":10474,"ĠConrad":10475,"Ġstraightforward":10476,"Ġcombine":10477,"Ġbands":10478,"Ġcatchy":10479,"ĠParty":10480,"Ġtemper":10481,"ĠCentral":10482,"ĠTurkish":10483,"ĠProfessor":10484,"Bad":10485,"inch":10486,"inity":10487,"inations":10488,"reens":10489,"Ġwides":10490,"Ġhokey":10491,"omn":10492,"Ġmoody":10493,"Ġstale":10494,"eta":10495,"ĠHomer":10496,"Ġcho":10497,"ifetime":10498,"Ġplight":10499,"ĠRh":10500,"ĠJol":10501,"Ġunimagin":10502,"ĠKay":10503,"Ġentr":10504,"Ġrecover":10505,"Ġsmell":10506,"Though":10507,"Ġletters":10508,"otta":10509,"Ġmessed":10510,"Ġcloset":10511,"Ġmisery":10512,"Ġpurs":10513,"Ġcenters":10514,"Ġantagon":10515,"Ġagenda":10516,"Ġspirits":10517,"Ġ1995":10518,"Ġconflicts":10519,"Ġreaching":10520,"Ġmanipulative":10521,"Ġchallenged":10522,"Ġhalluc":10523,"ĠBernard":10524,"Ġactivities":10525,"Ġcigaret":10526,"onymous":10527,"Ġwacky":10528,"SI":10529,"Ġfingers":10530,"Ġdresses":10531,"Ġlately":10532,"Ġanth":10533,"ĠHugh":10534,"ĠDig":10535,"Ġvon":10536,"opic":10537,"thm":10538,"Ġdeaf":10539,"ĠRoth":10540,"ĠLie":10541,"Ġrant":10542,"ĠEst":10543,"igo":10544,"ĠKyle":10545,"Ġtwin":10546,"Ġrealizing":10547,"iley":10548,"ĠChamp":10549,"Ġrecon":10550,"Ġriot":10551,"lix":10552,"Ġexploration":10553,"spir":10554,"Ġheading":10555,"Ġedit":10556,"Ġvisible":10557,"Ġhousehold":10558,"ĠPete":10559,"ĠPeters":10560,"Ġmistress":10561,"Ġrespected":10562,"Ġquestionable":10563,"Ġboxing":10564,"Ġfascinated":10565,"ylum":10566,"ĠTimothy":10567,"ĠBetter":10568,"ĠONLY":10569,"ructive":10570,"ĠEllen":10571,"Ġcounterpart":10572,"Ġbetrayal":10573,"ĠClassic":10574,"ĠTitanic":10575,"ĠWidmark":10576,"likable":10577,"gomery":10578,"AP":10579,"UST":10580,"lined":10581,"uary":10582,"zilla":10583,"Ġsan":10584,"orney":10585,"Ġinherent":10586,"icable":10587,"ĠAaron":10588,"Ġhabit":10589,"Ġroof":10590,"ĠNBC":10591,"ĠTherefore":10592,"Ġgrass":10593,"Ġhumble":10594,"Ġsmiling":10595,"Ġinvited":10596,"Ġdifferently":10597,"Ġexperiments":10598,"Ġparanoia":10599,"mpire":10600,"Ġphotos":10601,"Ġpremiere":10602,"uries":10603,"ĠSimply":10604,"ĠAfghan":10605,"Ġobjects":10606,"Ġwidely":10607,"Ġaccomplish":10608,"Ġexperimental":10609,"itizen":10610,"Ġseverely":10611,"Ġresources":10612,"Frank":10613,"bone":10614,"ji":10615,"xic":10616,"Ġgreed":10617,"ota":10618,"ĠAk":10619,"ĠBud":10620,"ĠCore":10621,"Ġexhaust":10622,"actors":10623,"olk":10624,"ĠPris":10625,"Ġrum":10626,"Ġordered":10627,"osing":10628,"Ġshowdown":10629,"Ġcloud":10630,"Ġpreced":10631,"Ġamid":10632,"Ġsubl":10633,"ĠJoel":10634,"Ġbasket":10635,"Ġsweat":10636,"ĠPeck":10637,"Ġlanding":10638,"Ġoccasions":10639,"Ġmodest":10640,"Ġjumped":10641,"Ġkicking":10642,"Ġsquare":10643,"vira":10644,"Ġcelebrity":10645,"ĠVirginia":10646,"ĠRochester":10647,"Love":10648,"rr":10649,"rum":10650,"ueless":10651,"vi":10652,"reet":10653,"Ġfog":10654,"ĠMajor":10655,"ĠCrit":10656,"ĠHuman":10657,"Ġrings":10658,"ĠGone":10659,"ĠEye":10660,"Ġclip":10661,"Ġquotes":10662,"Ġawfully":10663,"Ġslice":10664,"Ġchess":10665,"issa":10666,"azing":10667,"aneous":10668,"ucker":10669,"Ġnights":10670,"Ġvisits":10671,"Ġassigned":10672,"Ġdefinition":10673,"Ġexceptions":10674,"Ġvalid":10675,"Ġbargain":10676,"ĠAustin":10677,"Ġcatching":10678,"Ġcomplexity":10679,"ĠBerlin":10680,"Ġobjective":10681,"ĠHartley":10682,"Ġenthusiasm":10683,"Ġpursuit":10684,"Ġexposition":10685,"ĠWonderful":10686,"Ġtonight":10687,"prisingly":10688,"Ġdentist":10689,"Ġsaga":10690,"Ġastronaut":10691,"ĠAussie":10692,"Her":10693,"eff":10694,"mus":10695,"hell":10696,"Ġwolf":10697,"Ġmish":10698,"enger":10699,"icidal":10700,"Ġeats":10701,"ĠTan":10702,"ĠCher":10703,"ĠWy":10704,"aines":10705,"Ġabused":10706,"Ġabusive":10707,"ĠPut":10708,"ĠNaturally":10709,"ĠEyes":10710,"Ġunst":10711,"Ġclock":10712,"Ġpeak":10713,"Ġsimplicity":10714,"ĠSha":10715,"ĠClay":10716,"ugene":10717,"guy":10718,"goers":10719,"Ġsecretly":10720,"Ġsensational":10721,"ĠColonel":10722,"Ġtasteless":10723,"Ġmentions":10724,"Ġrobots":10725,"ĠDrake":10726,"ĠMagn":10727,"AME":10728,"ĠBarrymore":10729,"Ġexcessive":10730,"Ġsurfing":10731,"Ġchooses":10732,"ĠBridges":10733,"ĠFurthermore":10734,"Ġvengeance":10735,"ĠGabriel":10736,"Ġmuddled":10737,"Ġdoctors":10738,"Ġuplifting":10739,"Ġsimultaneously":10740,"?'":10741,"Mart":10742,"Que":10743,"bi":10744,"rows":10745,"Ġfist":10746,"Ġbite":10747,"Ġdud":10748,"Ġlic":10749,"Ġgam":10750,"vell":10751,"Ġstream":10752,"riors":10753,"ĠBIG":10754,"ravel":10755,"ĠHeston":10756,"emesis":10757,"Ġintentionally":10758,"ĠThunder":10759,"geon":10760,"ĠKin":10761,"erto":10762,"urning":10763,"Ġdesires":10764,"Ġcrush":10765,"Ġobst":10766,"ĠScooby":10767,"ĠClaud":10768,"ĠClaude":10769,"ĠCarmen":10770,"show":10771,"Ġmysteries":10772,"END":10773,"ĠPatricia":10774,"Ġtracking":10775,"Ġprepare":10776,"ĠMaggie":10777,"ĠSarandon":10778,"Ġderanged":10779,"ĠJudy":10780,"Ġflee":10781,"ĠMontgomery":10782,"Ġcompanies":10783,"ĠAntonio":10784,"Ġcomplaints":10785,"ĠConsidering":10786,"heimer":10787,"Ġconservative":10788,"ĠBrooklyn":10789,"ĠBettie":10790,"Ġalleged":10791,"-)":10792,"AB":10793,"Bas":10794,"felt":10795,"hoe":10796,"mons":10797,"wan":10798,"Ġtent":10799,"Ġcripp":10800,"Ġinability":10801,"brow":10802,"ĠSoph":10803,"ĠME":10804,"ĠCris":10805,"ĠWATCH":10806,"ulations":10807,"ĠDoc":10808,"emic":10809,"ĠFarre":10810,"Ġrates":10811,"indul":10812,"Ġfee":10813,"ourke":10814,"Ġrealm":10815,"ĠVis":10816,"wear":10817,"Ġrail":10818,"Ġsimilarly":10819,"Ġcomprom":10820,"Ġvisiting":10821,"Ġdemise":10822,"ĠColin":10823,"ĠExp":10824,"ĠMarty":10825,"Ġpunishment":10826,"ĠDickens":10827,"Ġdebate":10828,"Ġcivilization":10829,"Ġobliv":10830,"Ġharmless":10831,"ĠSEE":10832,"Ġneighbors":10833,"ĠMiike":10834,"ĠWagner":10835,"Ġsublime":10836,"Me":10837,"ca":10838,"col":10839,"drama":10840,"ef":10841,"matic":10842,"power":10843,"uation":10844,"Ġtang":10845,"Ġbump":10846,"another":10847,"Ġdazz":10848,"Ġonline":10849,"Ġwashed":10850,"ĠSell":10851,"ĠMeryl":10852,"Ġshif":10853,"ĠFisher":10854,"Ġunaware":10855,"Ġshowc":10856,"Ġpeoples":10857,"Ġguards":10858,"Ġawa":10859,"anski":10860,"urned":10861,"ĠStock":10862,"Ġ23":10863,"Ġmayhem":10864,"Ġinsanity":10865,"Ġmusician":10866,"ĠShah":10867,"Ġboom":10868,"alsh":10869,"arents":10870,"Ġdepression":10871,"Ġexcl":10872,"Ġbehold":10873,"Ġretired":10874,"Ġnamely":10875,"Ġmisleading":10876,"ributes":10877,"Ġpsychic":10878,"Ġnarrow":10879,"Ġcompliment":10880,"uppets":10881,"ĠSimp":10882,"Ġmasses":10883,"Ġaccurately":10884,"Ġaccuracy":10885,"Ġroller":10886,"ĠBelushi":10887,"Ġjoins":10888,"Ġwitnesses":10889,"Ġbiography":10890,"Ġnonsensical":10891,"Ġchicken":10892,"ĠDiana":10893,"Ġsneak":10894,"Ġuniversal":10895,"ĠMachine":10896,"Ġprecisely":10897,"ĠAccording":10898,"Ġwisdom":10899,"Ġnephew":10900,"ĠVoight":10901,"AW":10902,"Ali":10903,"IF":10904,"Ser":10905,"dies":10906,"hot":10907,"ni":10908,"rings":10909,"Ġcities":10910,"Ġgym":10911,"Ġ/>***":10912,"Ġrender":10913,"ĠComb":10914,"Ġships":10915,"ĠWong":10916,"ulating":10917,"Ġsoccer":10918,"olate":10919,"ĠGame":10920,"ĠOR":10921,"ĠOs":10922,"Ġshed":10923,"Ġ---":10924,"irsty":10925,"ĠUnd":10926,"Ġcrook":10927,"Ġcream":10928,"ĠLeo":10929,"ĠZone":10930,"Ġfemales":10931,"Ġprotest":10932,"OULD":10933,"Ġstunned":10934,"pendence":10935,"Ġimmediate":10936,"Ġfashioned":10937,"Ġrandomly":10938,"Ġsquad":10939,"Ġlengthy":10940,"ĠApril":10941,"Ġambiguous":10942,"ĠDalton":10943,"George":10944,"Avoid":10945,"Ġfantasies":10946,"ĠHistory":10947,"Never":10948,"Okay":10949,"Very":10950,"Ye":10951,"ping":10952,"zer":10953,"Ġtv":10954,"inist":10955,"Ġwretched":10956,"ĠMind":10957,"ĠMild":10958,"ersed":10959,"ĠDall":10960,"actor":10961,"ĠFra":10962,"ĠGang":10963,"osis":10964,"ĠOk":10965,"Ġdirections":10966,"Ġflair":10967,"bergh":10968,"Ġaddiction":10969,"ĠBean":10970,"umbo":10971,"Ġedition":10972,"notch":10973,"ĠClose":10974,"ĠHero":10975,"Ġdoubts":10976,"Ġadvanced":10977,"Ġbusinessman":10978,"Ġresemble":10979,"Ġdesigns":10980,"Ġconcepts":10981,"Ġremarks":10982,"ĠJudge":10983,"Ġconfrontation":10984,"Ġbanal":10985,"Ġimprovement":10986,"Ġencourage":10987,"ĠPhillips":10988,"Ġshouting":10989,"Ġsupreme":10990,"ĠBlockbuster":10991,"Big":10992,"NING":10993,"uate":10994,"road":10995,"ĠHat":10996,"Ġchicks":10997,"istol":10998,"ĠLas":10999,"ĠLoy":11000,"ando":11001,"ĠThird":11002,"Ġnoises":11003,"cip":11004,"apable":11005,"Ġimitation":11006,"ĠHead":11007,"Ġrecre":11008,"ĠUr":11009,"Ġinterests":11010,"Ġsmugg":11011,"Ġinvented":11012,"ĠShar":11013,"Ġexpand":11014,"Ġpassengers":11015,"ĠSomehow":11016,"Ġ2002":11017,"Ġcomedians":11018,"claim":11019,"ĠAngels":11020,"Ġrepeating":11021,"Ġcircle":11022,"Ġregarded":11023,"ĠTerrible":11024,"Ġchoreographed":11025,"Ġreferred":11026,"Ġpoliceman":11027,"Ġhippie":11028,"ĠStudios":11029,"orcist":11030,"Ġanalysis":11031,"Ġgimmick":11032,"Ġlackluster":11033,"ĠSimpson":11034,"bable":11035,"Ġdarn":11036,"Ġlord":11037,"Ġstatic":11038,"amount":11039,"Ġsear":11040,"ĠMu":11041,"racy":11042,"ĠHOR":11043,"ĠWalsh":11044,"Ġscreens":11045,"Ġdele":11046,"ĠFunny":11047,"ĠGle":11048,"Ġunle":11049,"Ġrealised":11050,"ĠValley":11051,"raph":11052,"Ġowners":11053,"Ġappropriately":11054,"ĠLegend":11055,"Ġassign":11056,"psons":11057,"offs":11058,"ĠPearl":11059,"Ġsurviving":11060,"blood":11061,"Ġmachines":11062,"Ġseduct":11063,"Ġevolution":11064,"Ġunpredictable":11065,"ĠCrystal":11066,"Ġstumbled":11067,"ĠHughes":11068,"Title":11069,"!'":11070,"!,":11071,"Can":11072,"Last":11073,"Mur":11074,"mber":11075,"oqu":11076,"yo":11077,"Ġ.<":11078,"Ġmast":11079,"Ġgolf":11080,"Ġforcing":11081,"ĠSF":11082,"ĠSix":11083,"ĠBed":11084,"ĠCy":11085,"Ġchat":11086,"Ġsus":11087,"agement":11088,"ĠFell":11089,"ption":11090,"abled":11091,"ĠVin":11092,"ĠInter":11093,"Ġgrate":11094,"Ġdecor":11095,"ften":11096,"Ġcompleted":11097,"xton":11098,"phone":11099,"Ġrecommendation":11100,"Ġdramat":11101,"Ġedgy":11102,"Ġexped":11103,"Ġlively":11104,"Ġdemean":11105,"Ġtowns":11106,"iker":11107,"mmm":11108,"IDS":11109,"Ġsubstant":11110,"ĠFear":11111,"Ġsymbolic":11112,"Ġbiased":11113,"ĠHarrison":11114,"special":11115,"ĠKenneth":11116,"Ġalternate":11117,"Ġlandscapes":11118,"Ġlifted":11119,"Ġinteractions":11120,"ĠRepublic":11121,"ĠCuba":11122,"Ġsilliness":11123,"ĠâĢĵ":11124,"ĠRobbins":11125,"ĠDawson":11126,")!":11127,"Jul":11128,"Rating":11129,"filled":11130,"Ġ+":11131,"rehe":11132,"Ġfurn":11133,"Ġcaut":11134,"Ġpages":11135,"ĠIF":11136,"icy":11137,"Ġnomin":11138,"ĠBenn":11139,"illian":11140,"through":11141,"Ġdegr":11142,"astard":11143,"orthern":11144,"Ġloaded":11145,"Ġarist":11146,"ĠInspector":11147,"ĠStall":11148,"Ġunderwater":11149,"Ġrestored":11150,"Ġnightclub":11151,"Ġskull":11152,"Ġcounts":11153,"Ġsubjected":11154,"Ġsigned":11155,"Ġvein":11156,"ĠOthers":11157,"Ġgems":11158,"Ġteachers":11159,"Ġgeek":11160,"Ġquietly":11161,"Ġtacky":11162,"Ġdistribution":11163,"Ġcoincidence":11164,"Ġinjured":11165,"ĠAstaire":11166,"Ġchapter":11167,"Ġmotorcy":11168,"ĠCourt":11169,"bust":11170,"eur":11171,"person":11172,"wyn":11173,"zog":11174,"Ġmap":11175,"anim":11176,"uters":11177,"Ġshares":11178,"Ġatroc":11179,"oler":11180,"ĠRourke":11181,"uming":11182,"osition":11183,"Ġunravel":11184,"Ġclueless":11185,"assy":11186,"Ġamused":11187,"Ġspring":11188,"ĠVera":11189,"ĠUwe":11190,"ĠJoey":11191,"neyed":11192,"Ġcreator":11193,"identally":11194,"Ġgenerated":11195,"Ġgrainy":11196,"Ġportrayals":11197,"ĠDonna":11198,"Ġzoom":11199,"Ġparad":11200,"Ġstranded":11201,"volta":11202,"Ġprize":11203,"Ġcontrolled":11204,"ĠTrans":11205,"Ġ1972":11206,"Ġpositively":11207,"Ġmerits":11208,"Only":11209,"ĠRaymond":11210,"particularly":11211,"ifties":11212,"Ġprimitive":11213,"Ġsummar":11214,"Ġassumed":11215,"Ġyellow":11216,"Ġadopted":11217,"ĠfiancÃ©":11218,"ĠTruly":11219,"ĠStuart":11220,"ĠOpera":11221,"ĠUntil":11222,"ĠKapoor":11223,"Ġdysfunctional":11224,"HA":11225,"eem":11226,"vance":11227,"voc":11228,"Ġape":11229,"held":11230,"Ġstim":11231,"ĠSel":11232,"ĠTheat":11233,"Ġlibert":11234,"ĠMolly":11235,"rain":11236,"ĠHU":11237,"ĠHick":11238,"ĠWAY":11239,"Ġalleg":11240,"ĠLor":11241,"umar":11242,"auer":11243,"oder":11244,"aved":11245,"isha":11246,"ĠVon":11247,"ĠVol":11248,"ipid":11249,"Ġentitled":11250,"Ġslaughter":11251,"Ġchees":11252,"ĠDVDs":11253,"Ġpolished":11254,"Ġcredited":11255,"onyo":11256,"bye":11257,"Ġmoronic":11258,"Ġmurdering":11259,"Ġposted":11260,"Ġfascination":11261,"Ġbrutality":11262,"Ġaffairs":11263,"probably":11264,"Ġsignificance":11265,"omeday":11266,"ĠBeatty":11267,"Ġignorance":11268,"ĠEgyptian":11269,"ĠOlivier":11270,"ĠNatalie":11271,"ĠLuckily":11272,"TW":11273,"VEN":11274,"beth":11275,"motion":11276,"Ġ~":11277,"isk":11278,"erness":11279,"Ġcher":11280,"encer":11281,"Ġgor":11282,"lex":11283,"Ġster":11284,"ĠAD":11285,"ĠHank":11286,"Ġactive":11287,"Ġouting":11288,"ĠNative":11289,"ĠOt":11290,"Ġnod":11291,"Ġminus":11292,"Ġ22":11293,"Ġchew":11294,"Ġaddress":11295,"Ġconfidence":11296,"ĠRex":11297,"ĠChristians":11298,"Ġ99":11299,"Ġstrongest":11300,"Ġtransformed":11301,"Ġsteel":11302,"Ġfiller":11303,"ipper":11304,"Ġdrinks":11305,"Ġlifeless":11306,"ĠRooney":11307,"Ġrepresentation":11308,"Ġfifty":11309,"ĠNicol":11310,"Ġrendered":11311,"Ġempathy":11312,"Ġdemonstrates":11313,"modern":11314,"ĠRecommended":11315,"Ġarguably":11316,"Ġobligatory":11317,"iblical":11318,"ĠLoren":11319,"Ġdestroying":11320,"Ġjudgment":11321,"ĠHindi":11322,"ĠNeedless":11323,"Ġpredecessor":11324,"Ġfundamental":11325,"bast":11326,"fet":11327,"gian":11328,"Ġtunn":11329,"Ġtherap":11330,"leans":11331,"Ġnarc":11332,"addy":11333,"ĠSop":11334,"Ġbutcher":11335,"ĠHarr":11336,"ĠDID":11337,"iffer":11338,"emet":11339,"ĠFal":11340,"umin":11341,"Ġroots":11342,"osterous":11343,"ĠStiller":11344,"Ġstartling":11345,"olden":11346,"ĠShould":11347,"ĠSept":11348,"Ġconfir":11349,"Ġhearted":11350,"Ġcorpses":11351,"oiled":11352,"Ġprominent":11353,"ĠGerald":11354,"ĠPerfect":11355,"!\"<":11356,"Ġliterary":11357,"Ġlosers":11358,"Ġoperation":11359,"Ġhomes":11360,"Ġcircus":11361,"Ġexplores":11362,"ĠCorb":11363,"Ġinvestigating":11364,"oopers":11365,"Ġauthorities":11366,"Ġindustrial":11367,"Ġderiv":11368,"ĠSalman":11369,"Ġinconsistent":11370,"Em":11371,"lins":11372,"main":11373,"wright":11374,"inter":11375,"ĠIll":11376,"Ġec":11377,"ali":11378,"ĠCary":11379,"Ġshared":11380,"ĠDance":11381,"ĠDia":11382,"Ġwholly":11383,"thought":11384,"andal":11385,"Ġrising":11386,"ĠJenny":11387,"ĠGard":11388,"ĠGiant":11389,"Ġunlikable":11390,"oyle":11391,"plex":11392,"neath":11393,"Ġprey":11394,"Ġcontaining":11395,"Ġcrashes":11396,"ubby":11397,"Ġconscience":11398,"ĠClo":11399,"Ġswallow":11400,"Ġsupported":11401,"ĠHerzog":11402,"ĠEverybody":11403,"renching":11404,"ĠIMDB":11405,"Ġunlikeable":11406,"Ġambition":11407,"Ġopportunities":11408,"warf":11409,"Ġdrove":11410,"Ġspecies":11411,"ĠDuv":11412,"Ġprincess":11413,"ĠWHY":11414,"Ġgreedy":11415,"Ġchuckle":11416,"Ġshoddy":11417,"Ġwidescreen":11418,"Ben":11419,"EE":11420,"Red":11421,"ko":11422,"lay":11423,"length":11424,"vals":11425,"your":11426,"Ġsixties":11427,"Ġfox":11428,"Ġmute":11429,"Ġdreck":11430,"Ġliners":11431,"Ġhears":11432,"ĠSara":11433,"ĠMos":11434,"ĠMuppet":11435,"Ġchoppy":11436,"ĠDEAD":11437,"arty":11438,"ĠRene":11439,"asted":11440,"ĠGh":11441,"ĠGovern":11442,"ĠNap":11443,"Ġdisreg":11444,"iana":11445,"Ġpron":11446,"ĠAlm":11447,"Ġkeen":11448,"Ġtriangle":11449,"Ġinsipid":11450,"Ġartic":11451,"Ġdelicate":11452,"Ġmemor":11453,"ĠScreen":11454,"Ġgrabs":11455,"comings":11456,"Ġwaves":11457,"Ġmasterpieces":11458,"Ġdemented":11459,"Ġprovocative":11460,"Ġprofanity":11461,"ĠSamuel":11462,"EASE":11463,"ĠSimmons":11464,"Ġthreatens":11465,"Ġchallenges":11466,"Ġhackneyed":11467,"ĠHopefully":11468,"Ġpuzzle":11469,"Ġloyalty":11470,"Ġventure":11471,"Ġinaccurate":11472,"ĠReeves":11473,"ĠFriends":11474,"ĠErika":11475,"16":11476,"CR":11477,"MAN":11478,"dead":11479,"hind":11480,"Ġsor":11481,"isy":11482,"enberg":11483,"orus":11484,"Ġdow":11485,"Ġdrill":11486,"Ġeg":11487,"ieves":11488,"chi":11489,"Ġseldom":11490,"Ġsums":11491,"Ġabdu":11492,"Ġvain":11493,"Ġvice":11494,"Ġvocal":11495,"ĠPu":11496,"Ġoutfits":11497,"geant":11498,"ĠChief":11499,"izer":11500,"iped":11501,"Ġsometime":11502,"Ġgrief":11503,"Ġowned":11504,"Ġexceed":11505,"covered":11506,"Ġdelic":11507,"Ġlocals":11508,"ĠMarch":11509,"Ġhopelessly":11510,"ventures":11511,"Ġdevices":11512,"Ġteams":11513,"Ġrespective":11514,"Ġbarrel":11515,"Ġsensual":11516,"ĠSimpsons":11517,"blown":11518,"ĠSurely":11519,"Ġdescribing":11520,"Ġinsightful":11521,"Ġrejected":11522,"ĠNicholas":11523,"ĠOffice":11524,"Ġdomestic":11525,"Ġincorrect":11526,"ĠTemple":11527,"Ġdevastating":11528,"Ġadolescent":11529,"//":11530,"Hollywood":11531,"cil":11532,"met":11533,"rating":11534,"yers":11535,"ndrome":11536,"Ġmummy":11537,"ati":11538,"Ġlush":11539,"brid":11540,"icolor":11541,"eting":11542,"cel":11543,"Ġsending":11544,"ĠBost":11545,"rah":11546,"ĠCON":11547,"ĠHo":11548,"Ġshorter":11549,"Ġdope":11550,"antha":11551,"ĠRid":11552,"ĠLup":11553,"ĠGot":11554,"Ġprospect":11555,"Ġunsu":11556,"abh":11557,"ĠKitty":11558,"Ġtwins":11559,"Ġbrood":11560,"Ġshoulder":11561,"everly":11562,"Ġcope":11563,"ĠLeague":11564,"Ġlocated":11565,"Ġmorbid":11566,"Ġinfant":11567,"Ġdifficulties":11568,"Ġinspire":11569,"ĠRichardson":11570,"loria":11571,"zech":11572,"ĠCrazy":11573,"Ġroute":11574,"Ġscarecrow":11575,"Ġenthr":11576,"Ġassassination":11577,"Ġscrewed":11578,"ĠUpon":11579,"Ġexposure":11580,"ĠBogart":11581,"Ġguarante":11582,"Ġfulfill":11583,"Ġpreachy":11584,"Ġhungry":11585,"Ġrecycled":11586,"Ġsurgery":11587,"EAR":11588,"mn":11589,"yet":11590,"Ġfren":11591,"Ġdun":11592,"edge":11593,"Ġlens":11594,"roe":11595,"ĠBox":11596,"ĠBeth":11597,"ĠCut":11598,"ĠCook":11599,"ĠCAN":11600,"ĠCopp":11601,"ĠCOM":11602,"elic":11603,"ĠPrest":11604,"ĠOuter":11605,"Ġpoem":11606,"neck":11607,"perhaps":11608,"Ġremove":11609,"Ġshoulders":11610,"ocaly":11611,"ĠBrady":11612,"itsch":11613,"Ġconfident":11614,"ĠBlond":11615,"ounty":11616,"Ġmargin":11617,"Ġtops":11618,"Ġheartwarming":11619,"Ġrefuse":11620,"ĠWillie":11621,"Ġmorals":11622,"Ġvictory":11623,"heads":11624,"Ġmarked":11625,"Ġmilk":11626,"Ġcommunicate":11627,"Ġballs":11628,"Ġinternal":11629,"ĠWWE":11630,"Ġfrightened":11631,"Ġknocked":11632,"Ġpreferred":11633,"Ġpreviews":11634,"Ġfirmly":11635,"Ġdeceased":11636,"Many":11637,"bles":11638,"daughter":11639,"eches":11640,"lest":11641,"say":11642,"Ġwakes":11643,"Ġbones":11644,"Ġhoot":11645,"ĠTak":11646,"Ġans":11647,"ĠCarly":11648,"ĠWoo":11649,"ustin":11650,"oodoo":11651,"ĠRent":11652,"ĠLance":11653,"Ġcharged":11654,"ĠEarl":11655,"ounded":11656,"odder":11657,"ĠKnow":11658,"apse":11659,"Ġtwelve":11660,"ighters":11661,"Ġsupply":11662,"ashi":11663,"Ġexploring":11664,"Ġwarrior":11665,"aham":11666,"ĠBeast":11667,"Ġminded":11668,"ĠNote":11669,"Ġsingers":11670,"hetically":11671,"guided":11672,"Ġconsiderably":11673,"ĠDanes":11674,"ĠConne":11675,"Ġ1983":11676,"Ġposters":11677,"Ġ1997":11678,"bbie":11679,"ĠNights":11680,"ĠBela":11681,"ĠDarkness":11682,"Ġdeserted":11683,"Ġservant":11684,"Ġmatched":11685,"Ġreflects":11686,"ĠCarey":11687,"ĠMitchum":11688,"kshay":11689,"Ġsuspend":11690,"AG":11691,"Movie":11692,"days":11693,"fashion":11694,"wer":11695,"zes":11696,"really":11697,"Ġwing":11698,"Ġwoe":11699,"Ġbarb":11700,"atman":11701,"Ġhitch":11702,"lli":11703,"Ġtoys":11704,"Ġpill":11705,"Ġpione":11706,"arse":11707,"ilation":11708,"ghter":11709,"ĠAction":11710,"amiliar":11711,"uration":11712,"ĠHogan":11713,"ĠDow":11714,"Ġabund":11715,"usp":11716,"ĠLily":11717,"ĠLifetime":11718,"Ġintro":11719,"ĠJos":11720,"ĠOdd":11721,"ciously":11722,"Ġpecul":11723,"Ġoverlong":11724,"Ġserving":11725,"Ġbrat":11726,"Ġinvites":11727,"Ġshortcomings":11728,"Ġstudying":11729,"ĠZero":11730,"ologically":11731,"usey":11732,"Ġpresenting":11733,"ĠMonty":11734,"Ġbleed":11735,"Ġ1968":11736,"ĠFlash":11737,"Ġpreposterous":11738,"Ġdimin":11739,"Ġgender":11740,"Ġunexpectedly":11741,"Ġoption":11742,"Ġpetty":11743,"two":11744,"Ġimaginable":11745,"elvet":11746,"ĠKurtz":11747,"ĠCruise":11748,"ĠMUST":11749,"directed":11750,"Ġrhythm":11751,"Ġcontradict":11752,"Ġderivative":11753,"Best":11754,"Did":11755,"IV":11756,"Pro":11757,"RY":11758,"bar":11759,"creat":11760,"eor":11761,"flu":11762,"runs":11763,"Ġbreed":11764,"atoes":11765,"Ġpie":11766,"chor":11767,"ĠAunt":11768,"ĠCzech":11769,"Ġplag":11770,"agle":11771,"Ġrational":11772,"pton":11773,"arest":11774,"ĠStupid":11775,"ĠStorm":11776,"Ġviewpoint":11777,"Ġcomputers":11778,"Ġreader":11779,"ĠShat":11780,"ova":11781,"atively":11782,"inski":11783,"playing":11784,"Ġcontinually":11785,"yssey":11786,"Ġfilling":11787,"working":11788,"Ġhistoric":11789,"Ġconviction":11790,"Ġcruelty":11791,"ĠThankfully":11792,"ĠIrene":11793,"Ġbirds":11794,"Ġdemanding":11795,"Ġcaricature":11796,"ĠBrosnan":11797,"ĠHyde":11798,"Ġwardrobe":11799,"Ġathlet":11800,"FE":11801,"OY":11802,"bot":11803,"buck":11804,"ho":11805,"pan":11806,"Ġx":11807,"Ġwander":11808,"Ġmates":11809,"atured":11810,"orters":11811,"llie":11812,"Ġpump":11813,"arious":11814,"otal":11815,"Ġniece":11816,"ĠTW":11817,"ĠAF":11818,"Ġselection":11819,"urst":11820,"ĠMust":11821,"Ġweather":11822,"Ġshred":11823,"Ġchronic":11824,"ainted":11825,"Ġsoci":11826,"Ġvign":11827,"ĠPig":11828,"Ġshell":11829,"icken":11830,"Ġspan":11831,"Ġflam":11832,"Ġflashes":11833,"Ġslip":11834,"ĠAliens":11835,"Ġowns":11836,"Ġlasting":11837,".......":11838,"Ġunderstands":11839,"Ġheartfelt":11840,"Ġblackmail":11841,"Ġheroin":11842,"Ġdrift":11843,"guin":11844,"Ġdealer":11845,"Ġsolo":11846,"ĠRichards":11847,"Ġembark":11848,"Ġdesigner":11849,"Ġwilderness":11850,"Ġadditional":11851,"Ġsurroundings":11852,"Ġhypoc":11853,"Ġresolved":11854,"ĠMontana":11855,"Ġemerges":11856,"ĠPortug":11857,"ĠDunne":11858,"ĠAmazon":11859,"Ġweaknesses":11860,"ĠWORST":11861,"Ġinexplicably":11862,"Ġacclaimed":11863,"Ġspaceship":11864,"ĠScotland":11865,"Ġunexplained":11866,"Sam":11867,"pres":11868,"west":11869,"yard":11870,"Ġbars":11871,"atable":11872,"once":11873,"Ġgarden":11874,"ĠTele":11875,"Ġstare":11876,"ĠSide":11877,"ĠMol":11878,"ĠCel":11879,"ĠCab":11880,"ĠCushing":11881,"ĠLess":11882,"ĠFool":11883,"ĠFIL":11884,"ĠEastern":11885,"ĠEmpire":11886,"ĠOct":11887,"Ġleather":11888,"ĠKN":11889,"ĠKle":11890,"Ġdisast":11891,"cca":11892,"ĠView":11893,"ĠVince":11894,"ĠWhit":11895,"getic":11896,"Ġinsists":11897,"ERT":11898,"Ġgloom":11899,"ĠClar":11900,"ĠMarx":11901,"comed":11902,"Ġcolon":11903,"Ġsooner":11904,"Ġidentical":11905,"ĠGoldberg":11906,"Ġvirtual":11907,"ĠDenzel":11908,"ĠKidman":11909,"ĠRonald":11910,"ĠWriter":11911,"Ġdestroys":11912,"ĠCowboy":11913,"ĠGibson":11914,"fetched":11915,"emetery":11916,"Dead":11917,"Gu":11918,"Jim":11919,"eks":11920,"evil":11921,"normal":11922,"rec":11923,"Ġbread":11924,"itabh":11925,"Ġpushes":11926,"ĠSweet":11927,"ĠBrilliant":11928,"ĠMam":11929,"ĠMess":11930,"ĠHilton":11931,"Ġshaky":11932,"Ġchills":11933,"ĠDud":11934,"Ġvital":11935,"ĠFans":11936,"Ġrises":11937,"respect":11938,"Ġunseen":11939,"Ġrope":11940,"ĠHend":11941,"Ġentered":11942,"ĠAlone":11943,"ĠSpoilers":11944,"Ġrefers":11945,"Which":11946,"ypsy":11947,"ATH":11948,"Ġpsychology":11949,"load":11950,"Ġ1979":11951,"writing":11952,"ĠHorrible":11953,"Ġhostage":11954,"ĠDamon":11955,"ĠTerror":11956,"Ġpaintings":11957,"====":11958,"ĠNetwork":11959,"Ġrapidly":11960,"Queen":11961,"ĠClooney":11962,"ocalyptic":11963,"://":11964,"gren":11965,"pes":11966,"itated":11967,"aro":11968,"Ġ/>--":11969,"Ġrevers":11970,"Ġrebel":11971,"Ġstages":11972,"ido":11973,"Ġasylum":11974,"ĠMort":11975,"ĠWish":11976,"Ġsucc":11977,"actory":11978,"ĠRupert":11979,"Ġrides":11980,"ĠGay":11981,"ĠGray":11982,"Ġmeas":11983,"ĠOUT":11984,"Ġwhats":11985,"ĠKings":11986,"ĠKathy":11987,"Ġperman":11988,"Ġfluff":11989,"ansas":11990,"Ġgray":11991,"Ġyoungest":11992,"Ġstrangers":11993,"Ġepit":11994,"ĠBeach":11995,"Ġinterrog":11996,"Ġcentered":11997,"Ġmorally":11998,"ĠEdge":11999,"ANG":12000,"Ġstruct":12001,"ĠOrleans":12002,"Ġdestiny":12003,"Ġsubtly":12004,"Ġfilmmaking":12005,"Ġairport":12006,"Ġrespectable":12007,"Ġplanes":12008,"backs":12009,"ĠElvira":12010,"Ġacceptance":12011,"Ġidol":12012,"ĠQuentin":12013,"Ġmentality":12014,"Ġtestament":12015,"Ġdisgusted":12016,"ĠCarlos":12017,"Ġstretched":12018,"ĠHayes":12019,"ĠColumbia":12020,"ĠVerhoe":12021,"ĠRunner":12022,"ttp":12023,"Ġsketch":12024,"Ġsuburban":12025,"Ġreluctant":12026,"Ġsteady":12027,"Ġamusement":12028,"Ġvibrant":12029,"ĠSNL":12030,"ĠWITH":12031,"ĠMildred":12032,"Dark":12033,"Having":12034,"Ind":12035,"gency":12036,"haw":12037,"Ġomin":12038,"Ġfur":12039,"Ġlunch":12040,"chair":12041,"kees":12042,"Ġseam":12043,"ĠBattle":12044,"ĠBusey":12045,"Ġshaking":12046,"ulent":12047,"ĠDanger":12048,"Ġdose":12049,"Ġabst":12050,"ĠPfe":12051,"ĠPost":12052,"ĠRat":12053,"ĠLight":12054,"ĠGentle":12055,"ardom":12056,"ĠNik":12057,"ortions":12058,"ĠEugene":12059,"Ġpoker":12060,"ĠVelvet":12061,"Ġafterward":12062,"Ġbrown":12063,"rup":12064,"Ġgrin":12065,"Ġnewcom":12066,"iculty":12067,"Ġvisited":12068,"ĠMyr":12069,"Ġtopics":12070,"Ġschools":12071,"Ġthrilled":12072,"chester":12073,"ĠConan":12074,"Ġrespectively":12075,"Ġsurvives":12076,"boat":12077,"OUR":12078,"Ġprogramme":12079,"Ġstrengths":12080,"ĠWesterns":12081,"Ġcaliber":12082,"ymour":12083,"ĠDaniels":12084,"ĠDetective":12085,"Ġdisguise":12086,"Ġelevator":12087,"Ġdifficulty":12088,"Ġadmittedly":12089,"ĠDillon":12090,"ĠCoppola":12091,"bound":12092,"rection":12093,"Ġmort":12094,"ĠIV":12095,"ioni":12096,"ĠARE":12097,"ĠSoul":12098,"unless":12099,"ĠFast":12100,"ĠGinger":12101,"ĠThor":12102,"acking":12103,"Ġscenar":12104,"placed":12105,"Ġpartially":12106,"obby":12107,"Ġremakes":12108,"Ġbride":12109,"Ġattorney":12110,"ailing":12111,"Ġtraits":12112,"ocracy":12113,"Ġstrings":12114,"Ġaudition":12115,"Ġskits":12116,"Ġmarries":12117,"ypical":12118,"Ġmotive":12119,"ĠOrson":12120,"Ġairplane":12121,"Ġengrossing":12122,"Ġconduct":12123,"Ġdropping":12124,"Ġabsurdity":12125,"Ġdiscussing":12126,"Ġemployed":12127,"ĠRusso":12128,"ĠWHAT":12129,"ĠHayworth":12130,"Ġinevitably":12131,"ĠToday":12132,"Ġhealthy":12133,"Ġuniformly":12134,"ĠPaxton":12135,"iblings":12136,"Ġtempted":12137,"Ġinfected":12138,"Ġaspiring":12139,"Ġconveys":12140,"ĠBakshi":12141,"Ġexquisite":12142,"Ġpeculiar":12143,"ĠVerhoeven":12144,"DVD":12145,"IES":12146,"UD":12147,"Wr":12148,"acious":12149,"bie":12150,"cop":12151,"dan":12152,"ded":12153,"giving":12154,"Ã³":12155,"inator":12156,"arate":12157,"Ġduck":12158,"Ġdressing":12159,"leck":12160,"Ġrehears":12161,"ĠAwards":12162,"cends":12163,"Ġhapless":12164,"ĠBert":12165,"ĠBottom":12166,"ĠMain":12167,"ĠCos":12168,"ĠCard":12169,"Ġsharing":12170,"Ġshoe":12171,"Ġchron":12172,"Ġvoted":12173,"ĠPoe":12174,"Ġdepend":12175,"ĠLed":12176,"Ġneur":12177,"ĠGO":12178,"indu":12179,"Ġunm":12180,"Ġenig":12181,"obe":12182,"ober":12183,"Ġawaken":12184,"athon":12185,"Ġripping":12186,"Ġcasts":12187,"Ġexpects":12188,"Ġhelpful":12189,"Ġvisions":12190,"ampoon":12191,"Ġassured":12192,"Ġcrazed":12193,"Ġmisguided":12194,"Ġhilarity":12195,"ucci":12196,"ĠGodzilla":12197,"Ġeventual":12198,"ĠTravolta":12199,"OOOO":12200,"blah":12201,"Ġbombs":12202,"Ġstores":12203,"itzer":12204,"ACE":12205,"Ġseparated":12206,"ugging":12207,"Ġlaunch":12208,"Ġkissing":12209,"Ġconnections":12210,"ĠWilder":12211,"ĠCarell":12212,"ĠSavage":12213,"Ġcanceled":12214,"mittedly":12215,"Ġconventions":12216,"Ġcensors":12217,"ĠBarker":12218,",(":12219,"DER":12220,"bul":12221,"dep":12222,"fish":12223,"named":12224,"oard":12225,"overs":12226,"tick":12227,"Ġsale":12228,"Ġwives":12229,"Ġfuel":12230,"Ġcattle":12231,"Ġlux":12232,"Ġnick":12233,"ĠShy":12234,"ĠMath":12235,"ĠHans":12236,"Ġjarring":12237,"Ġvoc":12238,"ĠRush":12239,"ĠFoot":12240,"quin":12241,"ĠGOD":12242,"umn":12243,"Ġunrelated":12244,"assing":12245,"Ġadvers":12246,"owned":12247,"Ġblues":12248,"ĠViol":12249,"bearing":12250,"Ġspeeches":12251,"ffects":12252,"eworthy":12253,"orders":12254,"Ġcoff":12255,"ĠSeymour":12256,"ĠSpider":12257,"Ġreported":12258,"Ġmessy":12259,"Ġregards":12260,"OTH":12261,"Ġhugely":12262,"Ġlaws":12263,"Ġunsus":12264,"ĠChristianity":12265,"Ġstopping":12266,"ĠPalma":12267,"ĠMilo":12268,"www":12269,"Ġjealousy":12270,"Ġbabys":12271,"ĠCostello":12272,"ĠAmazing":12273,"Ġpedest":12274,"ĠOlivia":12275,"Ġarchitect":12276,"Ġclaustrophobic":12277,"Ġdeleted":12278,"Fl":12279,"GH":12280,"Rock":12281,"date":12282,"gio":12283,"vas":12284,"Ġmac":12285,"atement":12286,"Ġpulp":12287,"ician":12288,"Ġ/>****":12289,"Ġnatives":12290,"ĠHep":12291,"ĠDy":12292,"ĠLund":12293,"ĠFun":12294,"feld":12295,"Ġunimp":12296,"gends":12297,"ensen":12298,"Ġracing":12299,"Ġsetup":12300,"Ġcamc":12301,"Ġhandling":12302,"aney":12303,"ractive":12304,"Ġretire":12305,"minger":12306,"Ġpromote":12307,"Ġuncertain":12308,"Ġforgiven":12309,"Ġattacking":12310,"Ġ1996":12311,"Ġreceiving":12312,"Ġsticking":12313,"ĠEmperor":12314,"Ġkidnapping":12315,"Ġlayers":12316,"Ġcoward":12317,"ĠDemons":12318,"Ġstumbles":12319,"Ġfluid":12320,"Ġingenious":12321,"Ġprejudice":12322,"ĠHopkins":12323,"ĠPreston":12324,"ĠPfeiffer":12325,"PER":12326,"erve":12327,"Ġfiring":12328,"Ġmafia":12329,"oura":12330,"onent":12331,"Ġtooth":12332,"ico":12333,"rio":12334,"urg":12335,"thon":12336,"ĠRel":12337,"Ġranch":12338,"Ġhers":12339,"near":12340,"Ġ''":12341,"Ġthrust":12342,"Ġblink":12343,"Ġspecially":12344,"Ġunderm":12345,"Ġrifle":12346,"Ġraces":12347,"Ġcouch":12348,"Ġsubmar":12349,"Ġterrified":12350,"Ġinvasion":12351,"mostly":12352,"cope":12353,"isode":12354,"ĠDebbie":12355,"Ġstandout":12356,"ĠChristina":12357,"Ġavid":12358,"Ġmoron":12359,"Ġmedic":12360,"Ġinfo":12361,"Ġconstit":12362,"Ġbreakdown":12363,"Ġpleasing":12364,"Ġ1993":12365,"Ġrecognizable":12366,"ĠBrain":12367,"ĠRussians":12368,"Ġstatue":12369,"Ġmacho":12370,"affy":12371,"Ġpunches":12372,"Ġastounding":12373,"Ġmirac":12374,"Ġaccounts":12375,"ĠWinters":12376,"Ġearnest":12377,"ĠSnipes":12378,"Ġredund":12379,"Ġvastly":12380,"Ġcontribution":12381,"ĠArmstrong":12382,"ĠGregory":12383,"Ġmechanical":12384,"driven":12385,"Ġinstrument":12386,"ĠAfghanistan":12387,"Ġaristocr":12388,"ĠDuvall":12389,"Ġanswered":12390,"ĠFILM":12391,"Joe":12392,"Sure":12393,"War":12394,"mel":12395,"Ġtap":12396,"Ġwire":12397,"Ġfade":12398,"Ġmall":12399,"Ġdwell":12400,"almost":12401,"utton":12402,"iless":12403,"lymp":12404,"ĠBin":12405,"herd":12406,"Ġ('":12407,"ĠWright":12408,"Ġjaded":12409,"Ġactivity":12410,"Ġvo":12411,"Ġvary":12412,"isted":12413,"ĠLeland":12414,"ĠFollowing":12415,"Ġoutlaw":12416,"asting":12417,"ĠJill":12418,"ĠKramer":12419,"apid":12420,"Ġque":12421,"Ġslut":12422,"Ġcontempt":12423,"Ġmins":12424,"Ġcomprehe":12425,"Ġsmiles":12426,"Ġhandles":12427,"Ġlasts":12428,"Ġglowing":12429,"orky":12430,"Ġindication":12431,"Ġcollaps":12432,"Ġmisfortun":12433,"Ġdeserving":12434,"ĠSchne":12435,"ĠAlec":12436,"Ġclaiming":12437,"Ġdepths":12438,"ĠActress":12439,"Ġmassacre":12440,"Ġradical":12441,"Ġcompete":12442,"ĠIrons":12443,"ĠBoyle":12444,"Ġsavage":12445,"Ġdefeated":12446,"Ġspectacle":12447,"Ġcelebration":12448,"ĠLambert":12449,"Ġcrisp":12450,"Ġscratch":12451,"ĠIncred":12452,"Ġadmirable":12453,"Ġrestrained":12454,"Ġbefriends":12455,"ĠSydney":12456,"Super":12457,"Ġskateboard":12458,"Ġexpedition":12459,"ĠStallone":12460,"ĠDiaz":12461,"CM":12462,"fig":12463,"gt":12464,"ois":12465,"Ġtab":12466,"Ġsou":12467,"Ġfoil":12468,"Ġhides":12469,"Ġtomb":12470,"Ġdates":12471,"ĠTok":12472,"ĠAR":12473,"ĠSandy":12474,"tery":12475,"ĠCand":12476,"ulse":12477,"Ġscrap":12478,"ĠPowers":12479,"ĠLoc":12480,"Ġjustified":12481,"ardo":12482,"ardless":12483,"ĠNiel":12484,"ĠEyre":12485,"ĠOllie":12486,"Ġupst":12487,"ĠKline":12488,"izoph":12489,"Ġentering":12490,"Ġprince":12491,"Ġunderneath":12492,"Ġbugs":12493,"ovsky":12494,"onti":12495,"symp":12496,"Ġretros":12497,"Ġpassage":12498,"Ġfemme":12499,"Ġfabr":12500,"Ġdescent":12501,"ĠAmong":12502,"ĠSamantha":12503,"Ġwaitress":12504,"Ġpublicity":12505,"Ġ1969":12506,"Ġballet":12507,"Ġhangs":12508,"winning":12509,"Ġhammy":12510,"ĠLooking":12511,"genre":12512,"ĠBeauty":12513,"Ġblatantly":12514,"Ġautomatically":12515,"Ġabruptly":12516,"ĠDomino":12517,"ĠDowney":12518,"ĠShatner":12519,"100":12520,"Mad":12521,"Pr":12522,"Ray":12523,"fr":12524,"gid":12525,"gles":12526,"hole":12527,"ware":12528,"Ġtaped":12529,"Ġpink":12530,"omber":12531,"Ġnurs":12532,"along":12533,"ĠToy":12534,"ĠSway":12535,"ĠSudden":12536,"ĠBoo":12537,"ĠBunny":12538,"ĠLange":12539,"ĠFan":12540,"ĠGret":12541,"Ġupside":12542,"cile":12543,"Ġagency":12544,"orsese":12545,"ĠVisc":12546,"Ġgiallo":12547,"Ġfactors":12548,"Ġbitch":12549,"Ġinspect":12550,"deal":12551,"ĠScor":12552,"ĠScary":12553,"ĠZe":12554,"Ġblacks":12555,"Ġpainter":12556,"Ġregion":12557,"Ġroommate":12558,"Ġ1971":12559,"Ġ1984":12560,"Ġwitches":12561,"borg":12562,"Ġimmortal":12563,"Ġmidnight":12564,"IDE":12565,"ĠBelieve":12566,"Ġenergetic":12567,"Ġdragon":12568,"ĠUniversity":12569,"production":12570,"Ġhomosexuality":12571,"ĠToronto":12572,"Ġanticipation":12573,"ĠBacon":12574,"ĠAwful":12575,"Ġcrocodile":12576,"Ġslimy":12577,"Ġtactics":12578,"Ġbasketball":12579,"ĠSellers":12580,"Ġmotorcycle":12581,"Ġguaranteed":12582,"izophren":12583,"\"<":12584,"17":12585,"DS":12586,"IRE":12587,"Pol":12588,"Yet":12589,"dem":12590,"gas":12591,"hilar":12592,"kill":12593,"mary":12594,"oen":12595,"Ġturd":12596,"inction":12597,"Ġsomeday":12598,"Ġol":12599,"Ġmales":12600,"Ġcoc":12601,"arters":12602,"Ġgambling":12603,"utions":12604,"Ġformed":12605,"ĠSOME":12606,"ĠBird":12607,"ĠHaines":12608,"Ġaboard":12609,"ĠPonyo":12610,"ĠFace":12611,"quette":12612,"ĠJa":12613,"ĠJar":12614,"ĠGable":12615,"Ġunatt":12616,"ĠVill":12617,"Ġbackwards":12618,"Ġ1920":12619,"Ġmayor":12620,"Ġcoupled":12621,"ubble":12622,"aha":12623,"Ġrestrict":12624,"iterally":12625,"Ġcommits":12626,"Ġassure":12627,"Ġcommenting":12628,"Ġuncons":12629,"Ġaccepts":12630,"Ġsuggestion":12631,"Ġapproaches":12632,"Ġimmature":12633,"Ġrecords":12634,"Ġrequest":12635,"Ġmelanch":12636,"Ġcrossing":12637,"ĠPolanski":12638,"Blood":12639,"Ġlaun":12640,"Ġnerves":12641,"Ġsitcoms":12642,"Ġgentleman":12643,"ĠBeatles":12644,"ĠEntertain":12645,"Ġcaricatures":12646,"Ġinhabitants":12647,"Ġdilemma":12648,"ĠSeptember":12649,"Direct":12650,"cat":12651,"dest":12652,"Ġtip":12653,"Ġaer":12654,"Ġsiblings":12655,"Ġpant":12656,"Ġduration":12657,"Ġgained":12658,"Ġnails":12659,"stan":12660,"ieval":12661,"rand":12662,"ĠCL":12663,"ĠHum":12664,"outhed":12665,"arthy":12666,"ĠPle":12667,"ĠPix":12668,"ĠPiper":12669,"ĠLiv":12670,"ĠLena":12671,"ĠFay":12672,"ĠFont":12673,"ĠFinn":12674,"Ġoutright":12675,"ĠJod":12676,"Ġproving":12677,"Ġquarter":12678,"Ġrooting":12679,"epers":12680,"Ġremade":12681,"ĠUP":12682,"Ġincidents":12683,"Ġneedless":12684,"ĠFrances":12685,"Ġsincerely":12686,"Ġassert":12687,"Ġdefinitive":12688,"enna":12689,"lights":12690,"Ġminority":12691,"profess":12692,"ĠRambo":12693,"ĠCohen":12694,"Ġreferring":12695,"Ġshopping":12696,"ĠPrivate":12697,"ĠWerewolf":12698,"Ġdepends":12699,"ĠTechnicolor":12700,"Ġfrozen":12701,"ĠSpirit":12702,"ĠNovak":12703,">>":12704,"Jean":12705,"More":12706,"NA":12707,"cool":12708,"dram":12709,"iably":12710,"much":12711,"post":12712,"tta":12713,"zzy":12714,"Ġmail":12715,"orient":12716,"ouge":12717,"Ġpenn":12718,"Ġlion":12719,"Ġbelly":12720,"ador":12721,"sexual":12722,"ĠAIDS":12723,"ĠBam":12724,"ĠBug":12725,"ĠBeverly":12726,"ĠCou":12727,"ĠCross":12728,"Ġframes":12729,"Ġkudos":12730,"Ġvotes":12731,"ĠPulp":12732,"Ġworship":12733,"Ġmeal":12734,"ĠAlive":12735,"ĠJoh":12736,"Ġboasts":12737,"Ġ101":12738,"Ġglance":12739,"Ġglued":12740,"note":12741,"axy":12742,"Ġexamination":12743,"Ġbudgets":12744,"Ġdemonic":12745,"ĠMend":12746,"ORY":12747,"Ġcombines":12748,"ĠWhoever":12749,"Ġsuitably":12750,"Ġapproaching":12751,"ĠMoreover":12752,"ĠLauren":12753,"ĠSecondly":12754,"ĠClearly":12755,"Ġtolerable":12756,"ĠAntonioni":12757,"Ġassuming":12758,"Ġaddicted":12759,"ĠWendy":12760,"Ġtossed":12761,"Ġlimitations":12762,"Ġsatirical":12763,"Ġsarcastic":12764,"character":12765,"Ġdisastrous":12766,"18":12767,"Little":12768,"Mat":12769,"Mon":12770,"has":12771,"pa":12772,"leased":12773,"stin":12774,"ieg":12775,"ĠAS":12776,"amo":12777,"ĠBS":12778,"ĠHulk":12779,"ĠDoo":12780,"usively":12781,"Ġven":12782,"Ġvomit":12783,"isty":12784,"abby":12785,"inky":12786,"Ġdisin":12787,"Ġadvis":12788,"gins":12789,"Ġspree":12790,"Ġbacks":12791,"Ġunderwear":12792,"ĠAsia":12793,"ĠShell":12794,"Ġcoat":12795,"Ġentirety":12796,"Ġreports":12797,"Ġtranspl":12798,"Ġsuspension":12799,"Ġspirited":12800,"Ġmeteor":12801,"Ġerror":12802,"ĠMacbeth":12803,"Ġpractical":12804,"Ġthreatened":12805,"Ġoffend":12806,"ĠVictorian":12807,"Ġpilots":12808,"Ġmiracle":12809,"Ġbiopic":12810,"ĠErrol":12811,"ĠEvans":12812,"Ġtranslated":12813,"moving":12814,"Ġemerge":12815,"Ġlinked":12816,"Plan":12817,"Everything":12818,"Ġwanders":12819,"Ġdubious":12820,"Ġpattern":12821,"ĠHepburn":12822,"Ġcamcorder":12823,"Bill":12824,"Col":12825,"Jane":12826,"King":12827,"Pat":12828,"best":12829,"bourne":12830,"dig":12831,"uber":12832,"Ġcro":12833,"esque":12834,"orous":12835,"Ġharr":12836,"Ġhollow":12837,"Ġstardom":12838,"ĠSa":12839,"keeper":12840,"ĠBard":12841,"raw":12842,"ĠHK":12843,"ulously":12844,"Ġframed":12845,"olt":12846,"ĠLib":12847,"Ġouter":12848,"Ġintentional":12849,"quire":12850,"Ġunem":12851,"Ġfeast":12852,"Ġdisci":12853,"Ġtrials":12854,"anky":12855,"Ġcohes":12856,"ĠSpencer":12857,"ĠÂĳ":12858,"shock":12859,"Ġcultures":12860,"ĠGrudge":12861,"Ġ1973":12862,"Ġ1982":12863,"Ġwindows":12864,"Ġinformative":12865,"Ġprograms":12866,"Ġcontinuing":12867,"ĠEmil":12868,"ĠSanders":12869,"Ġdeparture":12870,"Ġdespicable":12871,"Ġiconic":12872,"ĠJacob":12873,"Ġfeminist":12874,"Ġphenomenon":12875,"Ġfortunate":12876,"Ġdiverse":12877,"Ġmesmerizing":12878,"Ġrebellious":12879,"Ġexterior":12880,"ĠAtlantis":12881,"ĠTheatre":12882,"ĠBoston":12883,"fashioned":12884,"Ġunsuspecting":12885,"!\".":12886,"MA":12887,"New":12888,"Since":12889,"high":12890,"wide":12891,"Ġtrop":12892,"Ġfishing":12893,"Ġhust":12894,"Ġinjust":12895,"Ġinformed":12896,"icer":12897,"Ġglee":12898,"stru":12899,"Ġstairs":12900,"roit":12901,"ĠMask":12902,"ĠCop":12903,"Ġshining":12904,"ĠWT":12905,"unks":12906,"ppers":12907,"ĠPoll":12908,"ĠLad":12909,"ortant":12910,"ĠEarly":12911,"Ġanyways":12912,"Ġclin":12913,"Ġclone":12914,"tec":12915,"Ġcharacterizations":12916,"Ġspine":12917,"Ġflim":12918,"Ġflashy":12919,"Ġunderworld":12920,"Ġimpris":12921,"Ġresidents":12922,"Ġrave":12923,"Ġexpectation":12924,"itionally":12925,"ĠSebast":12926,"Ġmonument":12927,"atton":12928,"ĠScorsese":12929,"Ġexpose":12930,"Ġexpense":12931,"INK":12932,"Ġregularly":12933,"Ġinflict":12934,"ĠGerard":12935,"Ġconsideration":12936,"Ġconvinces":12937,"Str":12938,"Ġsensible":12939,"ĠExorcist":12940,"Ġautobi":12941,"Ġmannerisms":12942,"Ġstunningly":12943,"Ġrescued":12944,"Before":12945,"ĠCassidy":12946,"ĠFuller":12947,"ĠCannes":12948,"ographical":12949,"Ġecho":12950,"Ġprivile":12951,"ĠValentine":12952,"Ġchopped":12953,"ĠFarrell":12954,"\":":12955,"''":12956,"14":12957,"cript":12958,"sn":12959,"wic":12960,"Ġ!!":12961,"Ġtapes":12962,"Ġmasc":12963,"Ġbilled":12964,"atum":12965,"oria":12966,"asse":12967,"Ġnit":12968,"Ġnaught":12969,"ĠTIM":12970,"adly":12971,"ĠAway":12972,"ĠSoder":12973,"irlfriend":12974,"ĠCron":12975,"opard":12976,"ĠPC":12977,"ĠPose":12978,"ĠFree":12979,"Ġneo":12980,"ĠGate":12981,"Ġconj":12982,"ardieu":12983,"ĠNa":12984,"ĠNaked":12985,"Ġlend":12986,"Ġgoods":12987,"oda":12988,"Ġendlessly":12989,"Ġpretends":12990,"Ġadjust":12991,"avin":12992,"Ġspont":12993,"Ġfles":12994,"ĠStay":12995,"Ġcontribute":12996,"Ġcrashing":12997,"Ġsubtext":12998,"Ġscreenwriters":12999,"ĠBron":13000,"rosawa":13001,"ĠRevolution":13002,"Ġcopied":13003,"Ġstudied":13004,"ĠNews":13005,"ikes":13006,"ĠEdie":13007,"Ġslee":13008,"ĠGrinch":13009,"Ġ1978":13010,"Ġ1988":13011,"Ġdecidedly":13012,"Ġmixing":13013,"Ġapproached":13014,"ĠMonroe":13015,"Ġerr":13016,"REE":13017,"Ġcolleagues":13018,"super":13019,"Ġmercy":13020,"Ġlegacy":13021,"ITY":13022,"?!?!":13023,"Ġimplied":13024,"Ġcleaning":13025,"Ġtendency":13026,"ĠMasters":13027,"Ġnerve":13028,"Ġconfronted":13029,"Ġbanter":13030,"Ġprincip":13031,"Ġenthusiastic":13032,"Ġbabies":13033,"girls":13034,"Ġrewarding":13035,"ĠDirection":13036,"Ġadopt":13037,"ĠNolte":13038,"Ġconveniently":13039,"Ġconvicted":13040,"Ġphenomenal":13041,"Ġpoliticians":13042,"Ġironically":13043,"Ġconclude":13044,"ĠCasey":13045,"Toole":13046,"Ġbeside":13047,"ĠGandhi":13048,"ĠVisconti":13049,"*<":13050,".),":13051,"bon":13052,"bly":13053,"chet":13054,"cules":13055,"door":13056,"fare":13057,"gener":13058,"have":13059,"Ġwounds":13060,"erman":13061,"Ġbent":13062,"athing":13063,"Ġcemetery":13064,"Ġhires":13065,"angh":13066,"Ġpomp":13067,"Ġling":13068,"Ġstumble":13069,"idan":13070,"ĠAven":13071,"Ġbutler":13072,"ĠDest":13073,"Ġdoom":13074,"anton":13075,"Ġvile":13076,"ĠPierce":13077,"ĠRhett":13078,"Ġoutline":13079,"Ġrug":13080,"ĠJed":13081,"ĠGall":13082,"umming":13083,"osal":13084,"ĠEthan":13085,"Ġgoals":13086,"icky":13087,"Ġdismal":13088,"Ġdisabled":13089,"avia":13090,"Ġrealization":13091,"Ġhorny":13092,"Ġslack":13093,"Ġtrace":13094,"ockey":13095,"Ġfarmer":13096,"Ġmonkeys":13097,"Ġfathers":13098,"Ġrepulsive":13099,"Ġretrie":13100,"ĠChristine":13101,"ĠÂ£":13102,"shadow":13103,"ĠJustice":13104,"Ġangels":13105,"Ġuncut":13106,"Ġrespects":13107,"ĠTwilight":13108,"ĠBravo":13109,"Ġestr":13110,"Ġ1939":13111,"Ġaffects":13112,"ĠLester":13113,"Ġfifth":13114,"RIBLE":13115,"Ġcontroversy":13116,"Ġauthenticity":13117,"ĠPreminger":13118,"produced":13119,"Ġcooking":13120,"Ġtremendously":13121,"ĠBonnie":13122,"Ġconcentrate":13123,"Ġisolation":13124,"Ġmasks":13125,"Ġcliches":13126,"Ġintricate":13127,"Bottom":13128,"FUL":13129,"Lu":13130,"Les":13131,"Mean":13132,"TT":13133,"car":13134,"dam":13135,"lord":13136,"mad":13137,"vability":13138,"xter":13139,"Ġfaint":13140,"Ġcage":13141,"Ġhuh":13142,"Ġinsec":13143,"Ġbelt":13144,"urous":13145,"urring":13146,"ĠMall":13147,"ĠHou":13148,"ĠWR":13149,"ĠWait":13150,"Ġattended":13151,"Ġjet":13152,"olved":13153,"Ġrats":13154,"ĠJuly":13155,"odox":13156,"ĠKiss":13157,"ĠKumar":13158,"ayson":13159,"Ġprequel":13160,"ĠUt":13161,"Ġoldest":13162,"Ġdecap":13163,"Ġsmug":13164,"Ġacademy":13165,"scar":13166,"nothing":13167,"ĠRobot":13168,"guard":13169,"cheek":13170,"Ġaircraft":13171,"Ġreminder":13172,"ĠTrust":13173,"Ġ1981":13174,"Ġpornography":13175,"ĠAgent":13176,"ASS":13177,"abbit":13178,"Ġhammer":13179,"Ġdeny":13180,"ĠPalance":13181,"Ġfunding":13182,"burne":13183,"ranos":13184,"Ġcommitment":13185,"Ġenhanced":13186,"Ġsympathize":13187,"ĠFROM":13188,"Ġstroke":13189,"Ġresurrect":13190,"Ġunsatisfying":13191,"ĠMormon":13192,"ĠEisenstein":13193,"ĠDallas":13194,"Ġgrateful":13195,"Ġnominations":13196,"busters":13197,"Ġpronoun":13198,"Ġmisfortune":13199,"!?":13200,"Sim":13201,"bach":13202,"liest":13203,"mers":13204,"sub":13205,"Ġfierce":13206,"Ġbiol":13207,"Ġbulk":13208,"Ġcue":13209,"Ġcurt":13210,"Ġhij":13211,"Ġpals":13212,"Ġdrew":13213,"ĠTCM":13214,"Ġwash":13215,"Ġyard":13216,"ĠMing":13217,"ĠWrest":13218,"people":13219,"Ġaltered":13220,"ĠLans":13221,"quer":13222,"ĠNon":13223,"Ġpros":13224,"Ġquant":13225,"intage":13226,"Ġseeming":13227,"cco":13228,"ĠVaugh":13229,"version":13230,"Ġincapable":13231,"Ġmusc":13232,"Thank":13233,"Ġreaders":13234,"arrot":13235,"Ġartwork":13236,"ĠReagan":13237,"Ġcraz":13238,"ĠZh":13239,"comes":13240,"hetto":13241,"Ġposing":13242,"ielding":13243,"!)<":13244,"OUN":13245,"?\"<":13246,"ĠParamount":13247,"know":13248,"ĠTrail":13249,"Ġdolls":13250,"Ġcriticize":13251,"Ġ1945":13252,"ĠHolocaust":13253,"Ġescaping":13254,"Ġmediocr":13255,"Ġmouths":13256,"ĠLaurence":13257,"Ġyouthful":13258,"Ġvehicles":13259,"burg":13260,"ĠKurosawa":13261,"Ġpursued":13262,"Ġdemonstrate":13263,"ĠPortman":13264,"ĠEnterprise":13265,"Ġdisguised":13266,"Ġconvenient":13267,"ĠWesley":13268,"Ġselected":13269,"ĠfiancÃ©e":13270,"ĠIngrid":13271,"ĠKahn":13272,"Ġpsyched":13273,"ĠGilbert":13274,"Ġpublished":13275,"Ġparanoid":13276,"Ġvigil":13277,"ĠBennett":13278,"Ġdisregard":13279,"Ġbrooding":13280,"Ġabstract":13281,"sympathetic":13282,"ĠSwayze":13283,"!\",":13284,")?":13285,"PP":13286,"doc":13287,"hal":13288,"ridden":13289,"uv":13290,"witted":13291,"Ġbike":13292,"esar":13293,"Ġpimp":13294,"asi":13295,"Ġloop":13296,"icia":13297,"uten":13298,"stood":13299,"Ġitems":13300,"vere":13301,"ĠACT":13302,"Ġhavoc":13303,"ĠMouse":13304,"ĠMalt":13305,"ĠCob":13306,"empl":13307,"Ġfruit":13308,"Ġsorely":13309,"ags":13310,"ĠLim":13311,"ĠLives":13312,"ĠLogan":13313,"ĠGloria":13314,"uded":13315,"Ġmanif":13316,"ĠKansas":13317,"Ġoverbearing":13318,"Ġadore":13319,"Ġusers":13320,"Ġblunt":13321,"Ġhorrified":13322,"before":13323,"Ġinsuff":13324,"oots":13325,"ĠSho":13326,"Ġhandic":13327,"Ġinterior":13328,"Ġcommander":13329,"Ġremembers":13330,"ĠClive":13331,"Ġswitched":13332,"oulies":13333,"Ġquestioning":13334,"Ġaccepting":13335,"Ġliteral":13336,"Ġcartoonish":13337,"Ġdelightfully":13338,"ĠLouise":13339,"Ġfatale":13340,"ĠMelville":13341,"Ġpreparing":13342,"Ġgear":13343,"ĠGarland":13344,"ICK":13345,"Ġpossession":13346,"Ġgrowth":13347,"ĠMcCoy":13348,"Ġsells":13349,"Ġpathos":13350,"Ġtourist":13351,"Ġtranslate":13352,"ĠWHO":13353,"ukh":13354,"Ġcracking":13355,"ĠZombies":13356,"Next":13357,"Ġneatly":13358,"Ġuniversity":13359,"Ġfetish":13360,"ĠModesty":13361,"Ġchoosing":13362,"ĠSisters":13363,"ĠBrenda":13364,"Ġinstitution":13365,"Ġstabbed":13366,"ĠMountain":13367,"Ġunimaginative":13368,"indulgent":13369,"Ġominous":13370,"Ġcomprehend":13371,"stinov":13372,"Ant":13373,"HO":13374,"Life":13375,"does":13376,"lucky":13377,"Ġwider":13378,"atile":13379,"Ġcries":13380,"Ġtoken":13381,"Ġpic":13382,"otional":13383,"utive":13384,"ĠTiger":13385,"vet":13386,"owed":13387,"imum":13388,"Ġseedy":13389,"ĠMob":13390,"ĠMoe":13391,"ĠCorn":13392,"ĠHir":13393,"ĠHapp":13394,"ĠWE":13395,"essed":13396,"active":13397,"actually":13398,"Ġorg":13399,"ĠGR":13400,"ĠNIGHT":13401,"Ġenchant":13402,"pling":13403,"Ġperception":13404,"ouring":13405,"arely":13406,"Ġpole":13407,"ishop":13408,"rug":13409,"Ġrainy":13410,"Ġlonging":13411,"Ġapply":13412,"Ġartsy":13413,"Ġdelicious":13414,"Ġhousewife":13415,"Ġregister":13416,"Ġpromoted":13417,"ĠDanish":13418,"Ġdiscern":13419,"Ġdestined":13420,"ĠPaulie":13421,"Ġundead":13422,"Ġapprox":13423,"Chris":13424,"ermit":13425,"onica":13426,"Ġdelighted":13427,"Ġexploits":13428,"ĠSTILL":13429,"Ġobsessive":13430,"ITE":13431,"ITT":13432,"Ġpraised":13433,"ĠLois":13434,"ĠRoyal":13435,"Ġsafely":13436,"Ġscariest":13437,"ĠCompany":13438,"Ġcontributed":13439,"Ġdivorced":13440,"ĠHAVE":13441,"Ġdeliberate":13442,"ĠPLEASE":13443,"ĠRicci":13444,"Ġdepending":13445,"ĠPotter":13446,"idelity":13447,"Ġexploding":13448,"People":13449,"Ġsuspicion":13450,"ĠElliott":13451,"Ab":13452,"ALLY":13453,"Get":13454,"Sl":13455,"cal":13456,"fman":13457,"flix":13458,"lad":13459,"lake":13460,"math":13461,"mund":13462,"Ġtire":13463,"Ġfires":13464,"Ġfreaking":13465,"Ġfifties":13466,"Ġbul":13467,"Ġbully":13468,"Ġbald":13469,"Ġbounty":13470,"esse":13471,"ĠIQ":13472,"oming":13473,"ental":13474,"eted":13475,"Ġwastes":13476,"ami":13477,"ammed":13478,"ĠBle":13479,"ĠCBS":13480,"ĠDixon":13481,"Ġjock":13482,"Ġwholes":13483,"ĠPra":13484,"ĠPalt":13485,"Ġoutdated":13486,"ĠEbert":13487,"Ġlock":13488,"ĠKell":13489,"sored":13490,"assin":13491,"Ġrose":13492,"Ġdont":13493,"Ġentries":13494,"Ġbiting":13495,"Ġinvention":13496,"Ġappeals":13497,"Ġbuzz":13498,"ĠReid":13499,"Ġindifferent":13500,"Ġzone":13501,"iami":13502,"ĠAmir":13503,"Ġboxer":13504,"ĠFrankly":13505,"Ġmeantime":13506,"erminator":13507,"OOK":13508,"royd":13509,"Ġbrainless":13510,"Ġgrounds":13511,"ĠStrong":13512,"ĠBasinger":13513,"Ġdegener":13514,"Ġbalanced":13515,"Ġboost":13516,"Ġensure":13517,"ĠJanet":13518,"Ġcolours":13519,"ĠCountry":13520,"ĠDirected":13521,"ĠGiov":13522,"Ġenhance":13523,"Ġeternal":13524,"Ġreliable":13525,"Ġinexplicable":13526,"Ġhunters":13527,"Ġacknowled":13528,"Ġrelentless":13529,"Ġmonologue":13530,"Ġcharacteristics":13531,"Ġrabbit":13532,"Ġpursue":13533,"ĠCorey":13534,"Ġneurotic":13535,".).":13536,"Niro":13537,"Sur":13538,"URE":13539,"first":13540,"prom":13541,"rary":13542,"Ã¼":13543,"Ġakin":13544,"Ġsession":13545,"Ġware":13546,"Ġok":13547,"Ġbim":13548,"Ġbabe":13549,"itors":13550,"Ġcents":13551,"eson":13552,"oust":13553,"Ġpoo":13554,"asper":13555,"asco":13556,"Ġ/>**":13557,"Ġbeg":13558,"ĠAkshay":13559,"ĠSame":13560,"ĠMack":13561,"ĠMuppets":13562,"ĠHim":13563,"Ġsugar":13564,"Ġscored":13565,"Ġplate":13566,"ĠGund":13567,"ĠGadget":13568,"Ġcharms":13569,"ĠKnox":13570,"Ġoverblown":13571,"forming":13572,"Ġrealities":13573,"Ġrealistically":13574,"ĠChamber":13575,"ĠUstinov":13576,"Ġminister":13577,"issance":13578,"Ġobtain":13579,"Ġapplied":13580,"Ġbug":13581,"Ġbuys":13582,"Ġextensive":13583,"spot":13584,"Ġrelevance":13585,"Ġdistraction":13586,"ountered":13587,"Ġstudies":13588,"ĠNoah":13589,"Ġcentre":13590,"Ġsnuff":13591,"Ġpatron":13592,"ĠDana":13593,"Ġswearing":13594,"Ġfills":13595,"Ġexistential":13596,"Ġsociet":13597,"Ġ1994":13598,"Ġresear":13599,"borough":13600,"ĠGoodman":13601,"ĠTravis":13602,"Ġinterviewed":13603,"Ġreplies":13604,"Ġcomparisons":13605,"Ġkidnap":13606,"ACT":13607,"Ġhooker":13608,"Ġexplosive":13609,"ĠEvan":13610,"Ġmutant":13611,"Ġadvertised":13612,"ĠYOUR":13613,"ĠPacific":13614,"Ġsinking":13615,"ĠAshley":13616,"Ġparallels":13617,"Ġobservation":13618,"Ġpsyche":13619,"ĠJuan":13620,"Ġsabot":13621,"ĠAffleck":13622,"Ġaesthetic":13623,"ĠScrooge":13624,"ĠAbraham":13625,"Ġvignettes":13626,"Ġscenarios":13627,"stanbul":13628,"Ġmediocrity":13629,"ĠPaltrow":13630,"Hor":13631,"iate":13632,"sorry":13633,"ufact":13634,"wick":13635,"wolves":13636,"Ġsought":13637,"Ġbitten":13638,"onents":13639,"omination":13640,"ĠTale":13641,"Ġreign":13642,"advert":13643,"cending":13644,"Ġanc":13645,"Ġhaunt":13646,"riz":13647,"ĠBun":13648,"ĠMoh":13649,"ĠMummy":13650,"ĠWyn":13651,"Ġalley":13652,"ussy":13653,"ĠPsycho":13654,"Ġdeem":13655,"ĠFried":13656,"ĠFitz":13657,"ige":13658,"ĠOlymp":13659,"Ġpercent":13660,"assic":13661,"ava":13662,"Ġrecreat":13663,"Ġundercover":13664,"athom":13665,"Ġdecline":13666,"Ġinsurance":13667,"Ġinsomn":13668,"Ġcinemas":13669,"Ġextrem":13670,"ĠLeft":13671,"ĠClaus":13672,"Ġcraw":13673,"Ġdrab":13674,"Ġmasters":13675,"Ġmorons":13676,"ĠKeep":13677,"Ġposes":13678,"Ġsickening":13679,"Ġencountered":13680,"Ġ1959":13681,"without":13682,"black":13683,"Ġsatisfaction":13684,"noir":13685,"Ġsuspected":13686,"Ġunsure":13687,"ĠGlen":13688,"Ġdivided":13689,"Nothing":13690,"Ġwisely":13691,"Ġdebt":13692,"Ġabandon":13693,"Ġunconv":13694,"ĠHawk":13695,"ĠCollins":13696,"Ġconveyed":13697,"Ġstalking":13698,"ĠLionel":13699,"ĠCharacter":13700,"Ġeternity":13701,"ĠHotel":13702,"ĠRuby":13703,"Ġimpecc":13704,"Ġdetectives":13705,"Ġowes":13706,"ĠInteresting":13707,"Ġlicense":13708,"Ġshifts":13709,"ĠClarke":13710,"Ġmedicine":13711,"Boy":13712,"Car":13713,"Im":13714,"Men":13715,"NOT":13716,"dance":13717,"gence":13718,"rust":13719,"ua":13720,"Ġ00":13721,"Ġta":13722,"render":13723,"Ġcaps":13724,"ester":13725,"ĠIstanbul":13726,"bral":13727,"Ġgaps":13728,"Ġnun":13729,"Ġitem":13730,"ĠTogether":13731,"ilmer":13732,"Ġexempl":13733,"Ġvoodoo":13734,"ĠGor":13735,"ĠGersh":13736,"Ġunsc":13737,"ureau":13738,"abel":13739,"avan":13740,"Ġspaghetti":13741,"Ġplotting":13742,"ĠHeck":13743,"azard":13744,"Ġlongest":13745,"ĠShot":13746,"Ġintertw":13747,"Ġheadache":13748,"ĠStephan":13749,"Ġmedieval":13750,"incarn":13751,"Ġlandmark":13752,"Ġavoiding":13753,"Ġcollective":13754,"Ġstatements":13755,"Ġimprobable":13756,"ĠActors":13757,"ĠRocky":13758,"Ġnoticeable":13759,"Ġaiming":13760,"ĠCarla":13761,"Ġsources":13762,"Ġinsights":13763,"ĠDarwin":13764,"Ġfields":13765,"Ġdetermination":13766,"Ġexperiencing":13767,"Ġeducated":13768,"Ġassociate":13769,"ĠMalone":13770,"Ġbreast":13771,"ĠCannon":13772,"Ġcycle":13773,"ĠMUCH":13774,"Ġaccessible":13775,"Ġstylized":13776,"Ġembrace":13777,"Ġwheelchair":13778,"Ġaxe":13779,"Ġgestures":13780,"ĠPython":13781,"Ġundeniably":13782,"Ġdazzling":13783,"ĠHUGE":13784,"Dis":13785,"FT":13786,"IVE":13787,"NY":13788,"fiction":13789,"Ġ).":13790,"Ġsanity":13791,"Ġwagon":13792,"Ġmim":13793,"Ġthieves":13794,"ĠIvan":13795,"Ġgoo":13796,"Ġmold":13797,"etc":13798,"Ġseas":13799,"ĠMalk":13800,"ĠMinn":13801,"ĠCreat":13802,"ĠHon":13803,"Ġshrink":13804,"ĠWol":13805,"ĠWork":13806,"ĠWILL":13807,"ĠDolph":13808,"emen":13809,"Ġscandal":13810,"Ġkarate":13811,"elope":13812,"oodle":13813,"Ġric":13814,"Ġintoler":13815,"quality":13816,"redited":13817,"Ġanytime":13818,"abre":13819,"ĠKo":13820,"inks":13821,"Ġarche":13822,"avier":13823,"Ġflavor":13824,"Ġinclusion":13825,"ĠAlison":13826,"Ġtraffic":13827,"Ġelite":13828,"Ġconfuse":13829,"Ġschizophren":13830,"Ġgrabbed":13831,"Ġpaints":13832,"Ġ95":13833,"unker":13834,"Ġirres":13835,"clim":13836,"Ġ1989":13837,"OUSE":13838,"ĠJules":13839,"Ġsensation":13840,"ĠColor":13841,"Ġdamaged":13842,"Ġmidst":13843,"kinson":13844,"ĠPolish":13845,"Ġphotographs":13846,"Ġpenal":13847,"ĠMencia":13848,"ĠDoris":13849,"Ġprinciple":13850,"Ġfraud":13851,"Ġorganized":13852,"Ġdistracted":13853,"Ġvideot":13854,"ĠKorea":13855,"Ġarguments":13856,"ĠRandolph":13857,"Ġinherit":13858,"ĠLowe":13859,"ĠSupporting":13860,"Ġharrowing":13861,"!).<":13862,"Bec":13863,"coll":13864,"family":13865,"mical":13866,"Ġtheories":13867,"Ġoo":13868,"Ġost":13869,"Ġbegging":13870,"ĠTER":13871,"vez":13872,"enton":13873,"ĠSW":13874,"ĠBarn":13875,"ĠBrig":13876,"urrent":13877,"ĠCarson":13878,"ĠDiet":13879,"Ġabound":13880,"ĠPak":13881,"ĠFaith":13882,"Ġlikewise":13883,"Ġorange":13884,"quest":13885,"Ġconco":13886,"Ġprob":13887,"ĠOcean":13888,"ĠKudos":13889,"izza":13890,"ĠVoy":13891,"Ġattach":13892,"thello":13893,"Ġresume":13894,"Ġnewer":13895,"Ġhardship":13896,"Ġclassy":13897,"Ġwarming":13898,"ĠDeNiro":13899,"Ġdramatically":13900,"scene":13901,"Ġreviewed":13902,"ĠStefan":13903,"Ġrepressed":13904,"STER":13905,"Ġsentences":13906,"Ġdamned":13907,"Ġcommunication":13908,"impy":13909,"ĠMadsen":13910,"Ġinsults":13911,"Ġdefine":13912,"Ġdemonst":13913,"Ġqualify":13914,"Ġgrip":13915,"Ġpossesses":13916,"Ġemployee":13917,"Ġswords":13918,"Ġinspirational":13919,"Ġvolume":13920,"Ġestablishing":13921,"Ġcomposition":13922,"ĠEverett":13923,"Ġarguing":13924,"Ġfestiv":13925,"Ġdumped":13926,"ĠIsraeli":13927,"Grade":13928,"Ġabsorbing":13929,"Ġpirate":13930,"ĠIsabelle":13931,"ĠSchneider":13932,"Eng":13933,"Final":13934,"Hara":13935,"Our":13936,"TY":13937,"bod":13938,"hop":13939,"nice":13940,"tit":13941,"iture":13942,"Ġhats":13943,"Ġinmates":13944,"Ġlol":13945,"utt":13946,"ĠToni":13947,"enth":13948,"Ġum":13949,"ĠBan":13950,"ĠMem":13951,"Ġshift":13952,"Ġchorus":13953,"ĠDJ":13954,"ifty":13955,"una":13956,"Ġscant":13957,"anti":13958,"ĠRaw":13959,"ĠLest":13960,"fell":13961,"ĠGree":13962,"ĠGoes":13963,"ĠKau":13964,"ĠKung":13965,"Ġperverse":13966,"Ġpopping":13967,"berry":13968,"bey":13969,"Ġolds":13970,"ection":13971,"Ġreserved":13972,"Ġraising":13973,"ignific":13974,"Ġexplode":13975,"Ġtyr":13976,"Ġpolar":13977,"Ġdeterior":13978,"atti":13979,"Ġskilled":13980,"Ġtitular":13981,"Ġmothers":13982,"Ġswing":13983,"Ġcritique":13984,"Ġsteer":13985,"Ġhusbands":13986,"Ġweaker":13987,"Ġseasoned":13988,"Ġ1987":13989,"Ġ1998":13990,"Ġachieves":13991,"Ġembarrassingly":13992,"ĠLetter":13993,"ĠRedford":13994,"Ġdiner":13995,"Ġintensely":13996,"Ġresembling":13997,"Ġveterans":13998,"ĠVampires":13999,"Ġbiker":14000,"Ġsurvivor":14001,"Ġsailor":14002,"Ġnauseating":14003,"Ġglamorous":14004,"Ġcrippled":14005,"Ġmasturb":14006,"Ġgorilla":14007,"ĠSopranos":14008,"Ġdownt":14009,"ĠEntertainment":14010,"Because":14011,"Cr":14012,"Dra":14013,"Mark":14014,"Sil":14015,"bill":14016,"despite":14017,"ÃŃ":14018,"inian":14019,"Ġsunk":14020,"rene":14021,"Ġbree":14022,"itivity":14023,"athered":14024,"ouri":14025,"Ġdwarf":14026,"asia":14027,"Ġinsect":14028,"ilia":14029,"Ġforbidden":14030,"ĠSue":14031,"Ġliqu":14032,"ĠCAR":14033,"ĠWing":14034,"ĠDame":14035,"ĠDiamond":14036,"unte":14037,"Ġjunior":14038,"elia":14039,"Ġsober":14040,"ĠPir":14041,"andro":14042,"ĠFL":14043,"ĠFew":14044,"Ġintact":14045,"ĠJet":14046,"ĠGram":14047,"ĠEste":14048,"Ġagon":14049,"Ġagony":14050,"Ġaftermath":14051,"Ġslaves":14052,"Ġslapped":14053,"ailed":14054,"ĠAlas":14055,"ĠAlways":14056,"Ġbelievability":14057,"Ġrightly":14058,"Ġhandy":14059,"ĠThats":14060,"Ġglaring":14061,"Ġsynt":14062,"Ġstuffed":14063,"Ġcheaply":14064,"ĠAmitabh":14065,"Ġunfamiliar":14066,"Ġtheatres":14067,"Ġadaption":14068,"Ġcolleague":14069,"Ġcondu":14070,"Ġdefies":14071,"Ġmillionaire":14072,"Ġverbal":14073,"2001":14074,"Ġsentimentality":14075,"Ġscrewball":14076,"Ġpeaceful":14077,"Ġtickets":14078,"ĠDepardieu":14079,"Ġrewarded":14080,"Ġhippies":14081,"Christopher":14082,"Ġlavish":14083,"birds":14084,"Ġlegitimate":14085,"Ġseductive":14086,"ĠNicolas":14087,"ĠLundgren":14088,"ĠShelley":14089,"Ġestranged":14090,"din":14091,"full":14092,"fights":14093,
[...]
